di 135935
che 110613
e 105969
a 87889
la 66572
un 61684
è 59748
il 59608
in 57517
i 56068
per 47290
una 41288
non 37525
le 34481
o 34001
are 32263
si 32071
E 26719
sono 26536
a. 25583
a, 25220
da 24412
ato 23869
l'@@ 23810
del 22950
s@@ 22641
con 21917
come 21855
o. 21554
ri@@ 21501
e, 21272
più 21246
e. 21093
o, 19967
in@@ 18555
della 18477
i@@ 17913
ci 17828
ano 17512
questo 17413
ma 17366
se 17124
di@@ 15907
ha 15267
i, 14860
. 14713
mi 14506
al 14397
"@@ 14364
S@@ 14311
ale 14253
t@@ 13734
gli 13385
o@@ 13342
nel 13299
, 13098
i. 12812
lo 12799
to 12516
ar@@ 12514
er@@ 12074
dei 11812
e@@ 11743
v@@ 11518
d@@ 11307
a@@ 11238
era 11223
Ma 11162
re@@ 11074
c@@ 11034
delle 10965
ho 10736
cosa 10625
av@@ 10593
pi@@ 10535
ate 10507
st@@ 10474
-- 10419
: 10408
g@@ 10389
molto 10363
abbiamo 10292
azione 10271
es@@ 10255
u@@ 10252
questa 10218
l@@ 10213
cui 10119
f@@ 10114
b@@ 10076
alla 10019
essere 9879
it@@ 9865
am@@ 9720
p@@ 9677
ati 9539
anche 9473
per@@ 9374
perché 9373
vi 9245
ando 9215
con@@ 9190
ere 9095
an@@ 9047
ata 8999
or@@ 8901
Non 8896
loro 8876
co@@ 8857
quando 8767
hanno 8699
on@@ 8608
? 8606
zione 8540
La 8440
dell'@@ 8338
r@@ 8325
D@@ 8267
ti 8249
M@@ 8197
pro@@ 8118
ica 8031
al@@ 8012
solo 7996
ver@@ 7994
ore 7970
at@@ 7900
fare 7880
m@@ 7874
su 7872
pre@@ 7840
amente 7825
ci@@ 7799
persone 7753
Il 7735
en@@ 7707
ad 7706
chi@@ 7641
de@@ 7640
so 7569
T@@ 7568
vi@@ 7543
uno 7344
A@@ 7327
et@@ 7247
quello 7226
ro@@ 7219
C@@ 7192
im@@ 7190
n@@ 7147
P@@ 7131
fi@@ 7119
re 7105
ai 6929
tutti 6830
ali 6789
io 6774
att@@ 6772
tutto 6747
un'@@ 6725
ag@@ 6667
nella 6619
così 6597
ti@@ 6568
do 6515
li@@ 6485
ono 6482
modo 6449
si@@ 6446
col@@ 6323
ic@@ 6285
B@@ 6282
ra@@ 6266
so@@ 6204
ap@@ 6187
mo@@ 6176
vol@@ 6132
ol@@ 6132
po@@ 6082
cre@@ 6061
ò 6039
anni 6037
ne 6017
questi 6015
un@@ 6008
gi@@ 5985
te 5973
'@@ 5970
sia 5958
mio 5945
amo 5938
bi@@ 5857
par@@ 5856
N@@ 5804
queste 5796
fatto 5762
ed 5753
mi@@ 5742
ico 5737
ità 5689
se@@ 5666
stato 5652
as@@ 5576
all'@@ 5562
us@@ 5515
ent@@ 5485
mia 5481
cor@@ 5473
È 5441
sta 5434
ac@@ 5379
endo 5371
L@@ 5328
ente 5320
and@@ 5298
Questo 5297
O@@ 5247
z@@ 5235
est@@ 5218
sp@@ 5210
parte 5208
sc@@ 5172
em@@ 5171
cose 5163
enza 5154
inter@@ 5128
far@@ 5124
F@@ 5102
ale. 5082
siamo 5026
due 4996
può 4984
R@@ 4973
E@@ 4952
prima 4902
ogni 4900
ciò 4893
chi 4890
zz@@ 4853
ter@@ 4807
In 4804
all@@ 4797
el@@ 4760
ut@@ 4759
de 4719
mondo 4712
dal 4706
no@@ 4663
mo 4660
c'è 4649
enti 4608
tra 4587
sol@@ 4552
li 4550
qu@@ 4541
man@@ 4528
ett@@ 4526
ad@@ 4522
ale, 4499
sul 4488
su@@ 4487
com@@ 4425
ta 4420
Quindi 4386
min@@ 4378
dove 4352
cer@@ 4343
pot@@ 4330
for@@ 4286
ori 4275
dis@@ 4273
do@@ 4253
- 4253
almente 4251
ur@@ 4250
dic@@ 4240
to@@ 4234
car@@ 4233
degli 4228
anno 4208
Se 4188
are. 4105
azioni 4104
sulla 4078
ant@@ 4071
-@@ 4067
noi 4047
poi 4041
ante 4034
qualcosa 4011
ist@@ 3989
ori@@ 3971
ava 3965
ete 3964
quel 3959
me 3944
G@@ 3921
ec@@ 3900
va 3898
gen@@ 3875
ric@@ 3866
mai 3837
L'@@ 3792
ev@@ 3779
alle 3779
quella 3746
dov@@ 3742
1@@ 3739
ina 3724
ato. 3695
fer@@ 3688
♫ 3680
ora 3674
vedere 3655
possiamo 3638
nostro 3620
fin@@ 3609
vita 3599
E' 3596
sione 3591
str@@ 3568
alt@@ 3567
tr@@ 3557
ero 3546
ancora 3518
dalla 3517
ll@@ 3510
os@@ 3483
are, 3469
ato, 3466
gli@@ 3464
vo@@ 3463
zi@@ 3445
zioni 3433
H@@ 3409
cont@@ 3404
k@@ 3401
ch@@ 3387
V@@ 3376
Per 3369
grande 3360
pens@@ 3355
suo 3352
quanto 3351
uto 3351
ven@@ 3343
tu@@ 3333
gente 3322
qui 3319
nostra 3316
Sono 3306
ve@@ 3298
sua 3281
ot@@ 3278
ce 3273
h@@ 3270
o? 3270
ari 3266
fa 3258
ing@@ 3258
Qu@@ 3256
ici 3253
" 3246
oc@@ 3228
met@@ 3209
d'@@ 3207
fic@@ 3204
ino 3188
etto 3183
Questa 3182
zion@@ 3181
is@@ 3175
I 3166
altro 3164
davvero 3155
der@@ 3147
sempre 3136
le@@ 3135
acc@@ 3134
... 3122
Ho 3120
tras@@ 3118
so, 3101
te@@ 3095
ess@@ 3091
ari@@ 3062
lo@@ 3043
ab@@ 3038
nell'@@ 3028
ser@@ 3014
aff@@ 3012
ment@@ 3006
sa 3001
rit@@ 2991
ine 2988
nei 2986
amento 2981
volta 2978
Ci 2974
In@@ 2965
sto 2957
eva 2954
Abbiamo 2952
I@@ 2946
cambi@@ 2914
sti@@ 2893
anti 2893
e? 2883
senza 2880
so. 2865
cos@@ 2864
K@@ 2864
avere 2854
". 2853
tempo 2850
tre 2846
ra 2840
cu@@ 2835
co, 2834
possono 2833
' 2832
uman@@ 2831
olo 2828
er 2823
one 2819
." 2815
ni@@ 2794
tutte 2791
dire 2778
inizi@@ 2776
Si 2775
co. 2771
diamo 2770
ra, 2763
che, 2758
port@@ 2756
erano 2742
à 2742
dopo 2739
qualche 2736
om@@ 2735
nelle 2730
Le 2728
aggio 2727
ati@@ 2718
du@@ 2712
y@@ 2711
Perché 2706
stata 2704
proprio 2699
bu@@ 2696
iamo 2689
quindi 2665
ell@@ 2645
dere 2640
Come 2628
ris@@ 2624
altri 2620
à. 2617
ra. 2610
gener@@ 2602
3@@ 2598
nostri 2598
A 2587
tipo 2586
evo 2579
avano 2572
cas@@ 2568
2@@ 2561
anza 2554
voi 2548
J@@ 2542
mar@@ 2539
molti 2536
mat@@ 2529
can@@ 2526
aggi@@ 2523
ire 2521
mostr@@ 2512
int@@ 2508
etti 2506
diver@@ 2504
lavor@@ 2503
Quando 2498
ir@@ 2488
br@@ 2485
sap@@ 2481
op@@ 2477
ass@@ 2462
por@@ 2458
re, 2458
ma@@ 2453
ed@@ 2438
po' 2420
TED 2410
ssi@@ 2407
sistema 2394
ia 2382
gu@@ 2371
ali@@ 2369
Mi 2369
amente, 2368
e: 2367
ite 2362
Ed 2356
pri@@ 2352
meno 2345
storia 2345
ca 2344
pen@@ 2331
à, 2326
lavoro 2318
negli 2314
dall'@@ 2311
mor@@ 2308
stesso 2307
viene 2305
tut@@ 2304
circa 2301
a? 2296
ul@@ 2283
divent@@ 2282
ica. 2281
cost@@ 2269
bisogno 2268
do, 2267
mon@@ 2265
and 2246
punto 2243
ica, 2241
altre 2241
é 2232
fu@@ 2225
W@@ 2218
mol@@ 2209
bo@@ 2208
alizz@@ 2204
eg@@ 2203
ita 2201
bas@@ 2198
o: 2197
ì, 2196
?" 2195
sci@@ 2183
ca@@ 2182
pi 2179
Un 2177
vit@@ 2160
iti 2159
pres@@ 2157
azione. 2154
bile 2152
are@@ 2151
funzion@@ 2144
fon@@ 2139
mentre 2139
aveva 2135
ento 2130
ali. 2126
comun@@ 2122
aut@@ 2120
uc@@ 2115
ente. 2112
ve 2111
ali, 2109
lasci@@ 2108
esse 2104
pag@@ 2101
mag@@ 2101
ini 2087
ten@@ 2079
cal@@ 2073
avo 2072
stiamo 2070
re. 2070
pol@@ 2050
4@@ 2034
ion@@ 2034
person@@ 2030
evano 2023
parl@@ 2021
prov@@ 2020
continu@@ 2016
creare 2016
bell@@ 2015
chiam@@ 2015
problema 2014
son@@ 2014
ano. 2012
tt@@ 2011
trov@@ 2010
potete 2007
pun@@ 2006
d 2005
stanno 2001
immagin@@ 1993
il@@ 1992
dati 1991
end@@ 1991
import@@ 1989
fosse 1984
alcuni 1975
An@@ 1971
andare 1971
ario 1967
stra@@ 1966
ast@@ 1966
legg@@ 1956
zione. 1955
to. 1952
zza 1952
ragazz@@ 1951
visto 1949
acci@@ 1949
fac@@ 1949
miei 1949
Talk 1948
arriv@@ 1946
azione, 1939
ro, 1938
gh@@ 1937
ani 1936
ti, 1935
fino 1931
fine 1929
ito 1928
nostre 1926
atti@@ 1925
realtà 1925
cit@@ 1915
ano, 1913
voglio 1913
abi@@ 1908
cominci@@ 1908
interess@@ 1903
Ecco 1902
Subtitles 1902
Transcript: 1902
ante. 1900
anni, 1895
capire 1891
vo 1887
entr@@ 1885
giorno 1885
cat@@ 1885
Una 1884
insegn@@ 1882
! 1881
colo@@ 1872
uti@@ 1869
quelle 1868
pass@@ 1868
milioni 1867
ne@@ 1866
sarebbe 1864
ru@@ 1860
Così 1858
ai@@ 1857
fuori 1854
ura 1854
ved@@ 1852
segu@@ 1845
do. 1842
.@@ 1842
aiut@@ 1837
sal@@ 1836
primo 1835
lo. 1832
ità. 1831
posto 1830
pes@@ 1829
arti@@ 1817
St@@ 1817
pe@@ 1816
ole 1815
giu@@ 1812
ov@@ 1807
essi@@ 1806
li. 1802
guar@@ 1800
stati 1795
sco@@ 1793
chio 1792
cam@@ 1783
um@@ 1781
avete 1773
verso 1773
molte 1771
", 1771
gn@@ 1767
sic@@ 1764
idea 1764
; 1763
dobbiamo 1763
rat@@ 1763
to, 1762
forse 1762
conosc@@ 1759
volte 1758
soci@@ 1756
ann@@ 1753
speci@@ 1752
oni 1751
dice 1747
esist@@ 1745
detto 1741
gg@@ 1741
an 1738
cent@@ 1734
potrebbe 1733
già 1731
tem@@ 1728
ici@@ 1727
nuovo 1726
ambi@@ 1725
me@@ 1724
ettiv@@ 1724
qualcuno 1721
si. 1719
dai 1716
bar@@ 1709
Ora, 1708
5@@ 1706
prendere 1705
gra@@ 1704
costru@@ 1700
credo 1700
allo 1700
momento 1700
anti@@ 1698
anz@@ 1694
arsi 1690
deci@@ 1689
U@@ 1684
mondo. 1684
zione, 1680
bambini 1679
leg@@ 1679
essi 1675
no 1671
tanto 1669
pren@@ 1668
pensare 1667
ran@@ 1666
pl@@ 1666
ore, 1665
test@@ 1663
a: 1660
pr@@ 1660
attraverso 1659
ene 1655
atori 1649
part@@ 1649
ativ@@ 1648
rete 1648
ro 1648
mer@@ 1647
Ora 1645
Lo 1644
veramente 1642
sei 1638
fu 1637
tiv@@ 1636
le. 1635
7@@ 1635
ren@@ 1633
quest@@ 1633
guard@@ 1631
val@@ 1628
nu@@ 1628
edi@@ 1623
anni. 1622
go 1622
grandi 1622
agli 1620
pa@@ 1617
ità, 1614
enze 1613
y 1612
eri@@ 1610
Av@@ 1607
ore. 1607
grado 1605
mente 1600
parlare 1600
si, 1597
tro@@ 1596
sa@@ 1595
sen@@ 1592
quale 1591
ini@@ 1590
fatt@@ 1589
no, 1588
ente, 1584
ti. 1582
ati. 1581
fo@@ 1580
stessa 1579
segn@@ 1578
no. 1578
sor@@ 1574
dist@@ 1574
indi@@ 1569
evol@@ 1569
migli@@ 1568
viv@@ 1563
lu@@ 1561
avuto 1560
dato 1558
enzi@@ 1557
importante 1557
etti@@ 1552
donne 1552
unque 1551
6@@ 1549
10 1544
dare 1543
eri 1542
uti 1542
acqu@@ 1541
Grazie. 1541
esso 1538
colo 1538
rel@@ 1536
ante, 1535
oggi 1535
eff@@ 1532
not@@ 1520
fanno 1517
tutta 1514
enz@@ 1513
ata. 1511
iti@@ 1509
amo, 1502
Di@@ 1502
alcune 1498
cap@@ 1498
gio@@ 1492
sioni 1491
mo, 1490
forma 1489
% 1480
li, 1480
quasi 1474
Quindi, 1474
siano 1474
far 1474
itu@@ 1473
ese 1472
tecnologia 1467
mett@@ 1466
dent@@ 1465
Io 1464
aspett@@ 1462
fat@@ 1462
dire@@ 1461
sion@@ 1461
trovare 1460
na 1458
All@@ 1455
ani@@ 1453
vent@@ 1452
proc@@ 1452
materi@@ 1451
specie 1449
via 1449
sper@@ 1449
ro. 1444
ola 1442
menti 1441
sarà 1440
enza. 1433
ei 1432
post@@ 1432
gia 1426
mo. 1425
tra@@ 1425
dalle 1423
ang@@ 1422
lav@@ 1418
avevo 1417
avamo 1416
usare 1414
reg@@ 1413
abbastanza 1413
penso 1412
problem@@ 1411
oper@@ 1408
co 1407
azz@@ 1407
ati, 1407
fel@@ 1404
9@@ 1396
gr@@ 1392
C'è 1390
dat@@ 1388
go@@ 1387
enza, 1386
altra 1383
fil@@ 1381
abb@@ 1380
5 1377
tratt@@ 1376
azion@@ 1373
maggior 1373
polit@@ 1371
compl@@ 1368
bili 1365
acqua 1364
Nel 1364
vengono 1363
prim@@ 1363
numero 1363
ate, 1361
lui 1361
arvi 1360
problemi 1359
natur@@ 1358
città 1357
quali 1354
anim@@ 1351
insieme 1349
s 1345
studi@@ 1345
piac@@ 1344
persona 1343
spi@@ 1343
ì 1340
ost@@ 1337
dir@@ 1336
t 1330
chied@@ 1328
ga 1327
aria 1325
coll@@ 1324
contro 1324
casa 1324
ff@@ 1323
settiman@@ 1322
Con@@ 1319
pic@@ 1319
mento 1318
w@@ 1318
ione 1318
pu@@ 1312
Era 1312
8@@ 1312
glob@@ 1309
atore 1308
lo, 1307
state 1305
cervello 1304
form@@ 1304
agli@@ 1304
amo. 1303
present@@ 1302
esper@@ 1301
inc@@ 1297
quattro 1297
accad@@ 1294
po, 1293
rest@@ 1293
amenti 1292
atto 1292
condivi@@ 1292
gioc@@ 1290
riusci@@ 1289
sulle 1288
’@@ 1287
Cosa 1284
allora 1283
vostro 1281
viamo 1281
secondo 1280
sull'@@ 1280
medi@@ 1280
ber@@ 1277
tor@@ 1275
fr@@ 1275
nas@@ 1274
cono 1274
osserv@@ 1274
sotto 1273
mu@@ 1272
ner@@ 1272
giorn@@ 1269
cresc@@ 1268
tiamo 1267
k, 1267
Gli 1266
mettere 1266
tri@@ 1266
controll@@ 1264
sem@@ 1264
quelli 1263
sost@@ 1263
certo 1262
u 1262
prossi@@ 1261
de. 1261
semplic@@ 1259
lun@@ 1258
svilupp@@ 1254
scel@@ 1253
tratta 1252
univer@@ 1252
progett@@ 1251
erò 1250
organizz@@ 1249
consider@@ 1247
Stati 1244
emente 1243
raccont@@ 1243
posso 1242
suoi 1242
sui 1241
cc@@ 1241
au@@ 1240
significa 1238
gran@@ 1238
facendo 1237
capi@@ 1236
ogg@@ 1231
Pro@@ 1226
strut@@ 1225
ge@@ 1225
le, 1225
pazi@@ 1225
ata, 1222
alc@@ 1221
differ@@ 1221
uta 1219
erà 1217
art@@ 1215
Che 1212
ere, 1211
da@@ 1210
liber@@ 1207
se, 1207
ici, 1207
ide@@ 1206
lin@@ 1206
po. 1204
senso 1204
arci 1204
50 1203
mondo, 1203
ss@@ 1200
Quello 1198
spieg@@ 1198
deve 1198
senti@@ 1196
ere. 1196
4 1194
realizz@@ 1194
esempio, 1194
messo 1194
ora, 1193
comport@@ 1193
metter@@ 1192
ig@@ 1192
invece 1191
evamo 1191
Voglio 1191
lingu@@ 1190
ta@@ 1190
stu@@ 1189
cir@@ 1188
men@@ 1188
Beh, 1188
sembr@@ 1187
Su@@ 1185
di, 1184
de, 1183
necess@@ 1183
vedete 1182
Vi 1182
aver 1182
scal@@ 1180
amente. 1180
fa, 1180
bre@@ 1180
me, 1180
mal@@ 1180
vist@@ 1176
domanda 1175
energia 1174
esempio 1174
vita. 1174
signific@@ 1174
ché 1171
durante 1169
prat@@ 1169
vero 1168
Gi@@ 1168
ori, 1168
ella 1168
vostra 1165
iniziato 1164
ban@@ 1163
livello 1161
.000 1161
arono 1161
ello 1161
ù 1160
mani@@ 1159
gruppo 1155
ede 1154
scor@@ 1153
Ri@@ 1153
gono 1152
cia 1152
20 1151
reste 1151
dar@@ 1149
propri@@ 1148
amb@@ 1147
ina, 1145
ggi@@ 1145
ricerca 1145
Ch@@ 1145
costruire 1143
dello 1143
icamente 1143
bene 1141
possibile 1140
app@@ 1139
sit@@ 1138
e' 1137
cento 1137
ate. 1136
raggiun@@ 1134
uso 1132
quei 1129
20@@ 1128
meglio 1126
vu@@ 1126
cambiare 1125
capit@@ 1123
americ@@ 1123
elle 1122
mas@@ 1122
defin@@ 1122
ort@@ 1121
sin@@ 1121
super@@ 1120
corso 1120
rà 1119
doman@@ 1118
"S@@ 1115
pas@@ 1114
avevano 1112
troppo 1111
pan@@ 1108
utilizz@@ 1107
sent@@ 1107
emo 1106
siete 1105
m 1105
ovvi@@ 1104
remo 1104
di. 1103
Sap@@ 1103
ici. 1102
rappresent@@ 1100
facciamo 1099
esi 1099
progetto 1099
ere@@ 1099
dur@@ 1097
oria 1096
cl@@ 1094
piuttosto 1094
ioni 1094
possibi@@ 1094
0@@ 1093
nello 1093
Com@@ 1093
uomo 1091
ecco 1091
lì 1090
caso 1087
sero 1087
abbia 1084
3 1084
anti. 1082
bb@@ 1080
h 1080
innov@@ 1079
peri@@ 1078
semplicemente 1077
possa 1077
esso. 1077
osc@@ 1076
Ha 1075
19@@ 1073
cin@@ 1070
appena 1069
ultimi 1068
ricer@@ 1068
paes@@ 1064
ana 1064
cinque 1062
issi@@ 1062
emo@@ 1062
lungo 1061
durre 1061
oro 1061
inci@@ 1060
sembra 1060
ron@@ 1060
riguar@@ 1058
età 1057
sfi@@ 1056
scri@@ 1055
ghi 1055
colleg@@ 1053
veni@@ 1053
poter 1051
ament@@ 1049
ricor@@ 1046
miglior@@ 1046
piccolo 1045
visi@@ 1045
giust@@ 1044
y, 1042
inf@@ 1042
dire, 1039
lei 1037
capacità 1037
questo, 1036
oltre 1036
zi 1036
comunità 1036
conto 1035
ina. 1034
vec@@ 1033
enti@@ 1033
società 1031
anzi@@ 1031
sappiamo 1031
zia 1030
viol@@ 1030
miliardi 1029
gno 1029
diff@@ 1027
preso 1027
aper@@ 1026
200@@ 1026
chiar@@ 1025
ill@@ 1025
00 1024
è@@ 1024
Per@@ 1023
on 1022
spesso 1022
off@@ 1022
ator@@ 1021
scoperto 1021
servi@@ 1021
nuova 1019
successo 1018
mus@@ 1018
'è 1017
simi@@ 1017
ucci@@ 1016
Grazie 1016
oi 1015
elli 1014
2 1013
Poi 1013
tta 1012
,@@ 1012
agn@@ 1010
positi@@ 1009
ri 1008
bile. 1007
h, 1007
difficile 1007
fe@@ 1006
utt@@ 1006
dit@@ 1006
bambin@@ 1004
oso 1003
questo. 1002
ont@@ 1002
spazio 1001
portare 1000
zio 1000
Al@@ 999
elettr@@ 998
er, 994
prote@@ 994
veloc@@ 991
Questi 990
paesi 988
ena 988
glio 987
dente 987
picco@@ 987
fantast@@ 986
è, 985
org@@ 985
id@@ 984
dollari 984
probabilmente 984
uro 980
gere 979
ob@@ 978
qui, 977
macch@@ 976
loc@@ 976
sso 975
schi@@ 975
diversi 975
meravigli@@ 974
enti. 973
imento 973
rispon@@ 971
luce 969
computer 968
nessuno 968
un'altra 968
sosten@@ 966
uomini 966
invest@@ 965
dav@@ 963
rag@@ 963
pos@@ 963
intellig@@ 961
pubblic@@ 960
avrebbe 958
chiamo 957
mort@@ 957
Siamo 956
te, 955
sett@@ 953
me. 953
dirit@@ 953
sapere 952
armi 952
mezzo 952
vediamo 951
mostra 950
nuov@@ 950
completamente 950
vista 945
tti 943
ce@@ 943
oni@@ 943
cli@@ 941
fre@@ 941
New 941
ri. 939
vis@@ 939
impar@@ 939
cio 938
cercare 937
dete 937
biso@@ 936
inten@@ 935
condi@@ 934
pure 933
000 932
tav@@ 931
informa@@ 931
appar@@ 931
individu@@ 931
niente 930
foto 929
devo 929
quest'@@ 928
ries@@ 928
ppi@@ 927
diventare 926
succ@@ 925
lavorare 924
ricon@@ 924
ori. 924
da. 923
30 922
base 922
itori 922
po 919
sce 919
figli@@ 918
tto 918
el 917
fond@@ 917
mano 916
cercando 916
oce@@ 915
anti, 915
etta 914
comp@@ 913
cell@@ 913
à@@ 913
mette 913
ricev@@ 912
ando@@ 911
g 910
potere 909
gest@@ 908
dev@@ 908
ben@@ 908
accor@@ 907
Pot@@ 907
Possiamo 906
Di 906
mie 905
6 904
risposta 904
farlo 903
hai 902
Mol@@ 902
é@@ 901
anc@@ 900
impe@@ 900
sar@@ 898
da, 898
causa 897
ito, 896
dott@@ 896
lit@@ 895
mangi@@ 895
ich@@ 893
remmo 893
qualcos@@ 891
conosci@@ 891
torn@@ 891
uni@@ 891
program@@ 890
incredi@@ 889
succed@@ 889
stava 888
famigli@@ 888
n 888
enti, 887
prend@@ 887
atten@@ 887
incontr@@ 886
din@@ 885
facci@@ 884
qualsiasi 884
paio 884
scrit@@ 883
pp@@ 883
iscono 882
net@@ 881
vivere 881
alità 881
k 881
des@@ 880
migliore 880
mess@@ 879
dovuto 878
otti@@ 877
Ar@@ 877
posti 876
cur@@ 875
cerc@@ 875
chiamato 875
pianet@@ 874
c'era 873
nuove 873
detto, 873
almente, 871
futuro 871
scienzi@@ 870
immagine 868
mili@@ 867
idee 867
creato 867
oli 866
abbi@@ 866
piace 866
non@@ 866
informazioni 865
persone, 865
modello 864
ò, 862
quell'@@ 862
esperienza 862
ace 861
er. 861
ri, 860
atu@@ 860
lla 859
porta 858
TED@@ 858
sing@@ 858
comunic@@ 858
diverse 856
grup@@ 856
grazie 855
vogliamo 855
micro@@ 854
fondament@@ 854
medic@@ 853
Ve@@ 852
che. 850
arlo 850
lmente 849
aver@@ 849
econom@@ 848
sentito 847
scar@@ 847
pal@@ 846
Queste 845
ragazzi 845
don@@ 844
corpo 844
pat@@ 843
[@@ 842
cervell@@ 841
sens@@ 840
chie@@ 840
regi@@ 839
qui. 839
riv@@ 839
bbero 839
industri@@ 838
x@@ 838
abilità 838
sbagli@@ 838
noi. 837
dono 837
j@@ 837
straordin@@ 836
aggi 835
piccola 835
Qui 834
tur@@ 833
stra 833
unque, 833
sch@@ 833
popol@@ 832
rispetto 831
ane 831
fotogra@@ 830
tecnologi@@ 830
cambiamento 829
compr@@ 829
Guar@@ 828
ricord@@ 827
vari@@ 826
fica 826
ascolt@@ 826
med@@ 825
cose. 824
nome 823
soff@@ 821
0, 821
economi@@ 820
ito. 820
anno. 820
ord@@ 817
Par@@ 817
corr@@ 816
7 816
vi. 816
Credo 816
effetti 815
gior@@ 815
poco 814
s, 814
zo 813
migliaia 813
tura 813
stre@@ 812
amp@@ 812
prodo@@ 812
letter@@ 810
Unit@@ 809
sare@@ 807
conc@@ 806
esso, 806
aument@@ 805
produ@@ 805
disc@@ 803
pon@@ 802
cellul@@ 802
l 802
100 801
trovato 801
qualunque 801
coli 800
serie 800
vuole 800
cominciato 797
semplice 797
obi@@ 797
cellule 796
processo 795
princip@@ 794
bri@@ 794
gre@@ 794
dol@@ 794
seconda 793
salv@@ 792
prof@@ 791
possibilità 791
scuola 791
num@@ 790
maggi@@ 790
plic@@ 790
fal@@ 790
ar 790
og@@ 790
noi, 790
Cer@@ 790
ma, 788
giov@@ 788
portato 788
gliere 788
vi, 788
Pri@@ 788
iche 787
isce 787
modell@@ 786
discor@@ 785
ico. 785
studenti 784
Ciò 783
anno, 783
finanzi@@ 783
parti@@ 782
istru@@ 781
termin@@ 781
usa 779
comput@@ 779
ativo 778
influ@@ 778
atura 777
forza 777
ì. 777
bbi@@ 777
tutto, 775
Hanno 774
mill@@ 773
fici 773
r 773
l'idea 773
razi@@ 773
posi@@ 772
tuo 771
inizio 768
riman@@ 768
etti, 768
mes@@ 767
succede 767
Mar@@ 767
aggiun@@ 766
ice 766
otten@@ 766
persone. 766
cri@@ 765
fatti 765
chiama 764
vic@@ 764
cammin@@ 764
giorni 763
vicin@@ 763
giro 762
l'inter@@ 762
strada 762
desider@@ 762
storie 762
Co@@ 761
gro@@ 760
vita, 759
bene. 758
citt@@ 757
che@@ 757
posizione 757
err@@ 756
dec@@ 756
attiv@@ 755
tempo, 755
dollar@@ 755
en 755
ness@@ 755
nuovi 754
ero@@ 754
psi@@ 754
eno 753
te. 752
illu@@ 752
tipi 752
risor@@ 752
potuto 751
gna 750
spazi@@ 749
media 749
Ne@@ 748
zzi 748
dentro 747
sistem@@ 747
pensi@@ 747
vorrei 747
osa 747
k. 747
prog@@ 746
noti@@ 746
modi 746
esattamente 746
ement@@ 744
secon@@ 744
soprav@@ 744
pressi@@ 743
impi@@ 743
pubblico 743
eggi@@ 742
batter@@ 742
stori@@ 742
donna 742
pron@@ 741
assi@@ 741
mare 739
essu@@ 739
intorno 738
ando. 738
dipen@@ 738
ger@@ 738
vano 738
carb@@ 737
macchina 736
rei 736
adesso 736
paese 736
così. 735
muov@@ 735
sue 735
sist@@ 734
Con 733
sh@@ 733
guardare 732
ete, 732
ette 732
quad@@ 732
rebbe 732
prefer@@ 732
essa 731
struttura 731
vide@@ 731
moment@@ 731
Potete 730
evi 730
Dobbiamo 730
pensato 729
invent@@ 728
scoper@@ 728
serv@@ 728
primi 727
parol@@ 726
scienza 726
prender@@ 726
olo@@ 726
Pu@@ 725
Vi@@ 725
dovremmo 725
tas@@ 724
fl@@ 723
Penso 723
tempo. 723
responsa@@ 723
one, 723
Cos@@ 723
futuro@@ 723
ona 722
l'un@@ 720
razione 719
Bene, 719
libro 718
perchè 718
dovrebbe 718
zioni. 717
bene, 717
motivo 716
tec@@ 716
conten@@ 716
Da 715
perf@@ 715
chiesto 714
contr@@ 714
fun@@ 714
sicure@@ 713
Un@@ 713
alist@@ 713
animali 713
sistemi 712
guid@@ 711
interessante 709
uff@@ 709
bl@@ 708
ond@@ 708
consu@@ 708
sotto@@ 707
gran 707
Tutti 707
auto@@ 707
campo 707
anza. 706
Anche 706
norm@@ 705
dagli 705
poter@@ 705
erebbe 705
cio@@ 705
donn@@ 705
matemat@@ 704
e." 703
puoi 703
elo 703
Pi@@ 703
luc@@ 703
malatti@@ 701
stessi 700
zzo 700
que 699
piccoli 699
buona 699
Dov@@ 698
bbe 698
immagini 698
tu 698
giorno, 698
d, 696
é, 696
bambino 696
♪ 696
conf@@ 695
a." 695
ologi@@ 695
robot 695
ando, 694
altro. 694
ave 694
az@@ 693
be@@ 693
imparato 692
inv@@ 691
potrebbero 691
bilità 690
col 690
mesi 690
tradi@@ 690
ottenere 689
asse 689
cibo 689
alto 688
rispost@@ 687
O 687
tar@@ 687
centro 686
iment@@ 685
tele@@ 684
se: 683
video 683
essero 683
avanti 683
pover@@ 682
Noi 682
missi@@ 682
] 682
anza, 682
api@@ 682
af@@ 681
zioni, 681
devono 681
profon@@ 680
za 680
qui@@ 679
lavoro. 679
mem@@ 679
scritto 678
mapp@@ 678
anto 678
ari, 678
tent@@ 677
dia 675
fare. 675
scienti@@ 674
ingegn@@ 674
digit@@ 674
Alcun@@ 674
democ@@ 674
propria 673
deva 673
nazion@@ 672
successi@@ 672
ativa 671
vor@@ 671
usci@@ 670
tua 670
amento. 670
erra 669
usando 668
particol@@ 667
metà 667
lett@@ 667
parti 667
matt@@ 667
ragion@@ 667
fico 666
suon@@ 666
saranno 666
15 665
potremmo 665
luogo 665
famiglia 665
one. 664
ture 664
parole 664
mi. 664
mi, 664
forest@@ 663
governo 663
mam@@ 663
particolare 662
umani 662
esi@@ 662
imparare 662
ci. 661
Tutto 660
difficil@@ 660
mini@@ 659
rac@@ 659
endere 658
rebbero 658
crescita 658
gioco 657
gni 657
i? 657
ammo 656
Allora 656
stor@@ 655
avrei 655
pul@@ 654
insiem@@ 654
applic@@ 654
sapete, 654
Pens@@ 654
scuol@@ 654
ase 653
b 653
dett@@ 652
y. 652
esa 651
stim@@ 651
diment@@ 649
vin@@ 649
civi@@ 649
all'interno 649
enn@@ 648
Bi@@ 648
sviluppo 648
fam@@ 648
som@@ 647
este 647
into 647
studio 646
visione 646
ram@@ 646
stare 646
guerra 646
trasform@@ 645
ossi@@ 645
quantità 644
dest@@ 644
Ter@@ 644
periodo 642
ranno 642
enorme 642
lanci@@ 641
tim@@ 641
facil@@ 641
rec@@ 640
ultimo 640
eco@@ 640
archit@@ 640
guer@@ 640
preci@@ 640
Forse 639
collabor@@ 639
Ogni 639
o." 639
uro@@ 638
eci 638
tot@@ 638
fa. 638
educ@@ 638
superfici@@ 638
dietro 637
chi. 637
arrivare 636
evolu@@ 636
nor@@ 635
regol@@ 635
differenza 635
Tut@@ 634
nes@@ 634
velo@@ 634
venire 634
den@@ 633
fis@@ 633
sce@@ 632
solu@@ 632
coinvol@@ 632
parola 631
blo@@ 630
sentire 630
Africa 628
govern@@ 628
colt@@ 628
dimostr@@ 627
metri 627
faccio 627
voc@@ 627
cav@@ 627
Le@@ 626
tenere 626
occhi@@ 625
spett@@ 625
th@@ 625
attività 625
or 624
Perch@@ 624
s. 624
natura 624
la@@ 624
ambiente 623
parla 622
bene@@ 622
deciso 622
8 621
rifl@@ 621
incredibi@@ 621
scher@@ 620
ezza 620
confer@@ 619
ico, 618
vogliono 618
pubbl@@ 617
bor@@ 617
imenti 616
mass@@ 616
sim@@ 616
opportunità 616
p 616
lan@@ 615
l'ho 615
dirett@@ 615
bracci@@ 615
isol@@ 614
eli@@ 614
anze 614
ge 613
ari. 613
esplor@@ 613
laboratori@@ 613
9 613
spar@@ 613
asci@@ 612
ò@@ 612
ute 612
tanti 612
stamp@@ 612
auto 612
eranno 611
madre 610
o-@@ 609
sacco 609
passato 608
diventa 608
questione 607
divers@@ 607
emi 606
stavo 606
plo@@ 606
oggi, 605
terra 605
dio 605
1 604
alta 604
usato 604
là 604
lev@@ 603
domande 603
fav@@ 603
priv@@ 603
spe@@ 603
"O@@ 602
endono 601
progre@@ 601
ia, 601
mondi@@ 600
ou@@ 600
l'in@@ 600
ak@@ 600
improv@@ 599
azioni. 599
migliori 599
pressione 599
comb@@ 599
occhi 599
tante 599
gar@@ 598
dut@@ 597
qual@@ 596
alz@@ 596
almeno 596
asc@@ 595
potenzi@@ 595
lont@@ 594
ragione 594
vostri 594
stru@@ 593
ece 593
viaggi@@ 593
esser@@ 593
funziona 592
clas@@ 592
cittad@@ 592
consegu@@ 591
serve 591
avevamo 591
programma 590
mente. 590
chi, 590
evit@@ 590
argo@@ 588
Dopo 587
abit@@ 587
detto: 587
lavoro, 586
equi@@ 586
rende 586
date 585
render@@ 585
faccia 585
padre 585
centinaia 585
moder@@ 584
poli@@ 584
caratter@@ 583
chiamata 582
zone 582
occu@@ 582
confron@@ 582
esperi@@ 582
limit@@ 581
aspetto 581
40 581
pet@@ 581
design@@ 581
azioni, 580
forma@@ 580
00@@ 580
Z@@ 580
economia 580
dimen@@ 579
Uniti 579
vicino 579
Indi@@ 579
sangu@@ 578
ener@@ 578
ecc@@ 578
', 578
mercato 578
volt@@ 577
dor@@ 577
tti@@ 577
Po@@ 577
ester@@ 577
cresci@@ 577
enor@@ 576
essimo 576
perch@@ 576
amici 576
colle@@ 576
Al 575
ose 575
design 575
trova 575
merc@@ 575
"Non 574
spost@@ 574
assolutamente 574
esseri 574
volta, 573
Fran@@ 573
be 572
Ro@@ 572
se. 571
popolazione 570
peggi@@ 570
loro. 570
cro@@ 570
petroli@@ 569
resto 569
capito 569
volevo 568
io, 568
ficare 568
prepar@@ 568
soluzione 567
aiutare 567
riuscit@@ 567
fronte 567
preoccup@@ 566
infin@@ 566
strumenti 565
nemmeno 565
vill@@ 565
ol 564
pensiamo 563
musica 563
ate@@ 563
rett@@ 563
eremo 563
guardate 563
divert@@ 562
Y@@ 562
Uno 561
assic@@ 561
indietro 561
effic@@ 561
ton@@ 560
caus@@ 560
soldi 560
possano 559
alber@@ 559
forme 559
intern@@ 559
aliment@@ 559
dopo, 558
ove 558
pianeta 558
telefon@@ 558
asi 558
rendere 557
farmac@@ 557
ing 557
realtà, 556
endo. 556
chiest@@ 556
pensate 555
fatto, 555
ani, 555
batt@@ 555
libr@@ 554
imo 554
controllo 554
sti 554
zza, 554
compi@@ 553
ì@@ 553
risol@@ 553
cose, 552
nessun 552
termini 552
ancor@@ 552
ust@@ 551
fossero 551
Immag@@ 551
ogn@@ 550
più. 549
oggi. 549
azien@@ 549
Ero 549
amento, 549
rivolu@@ 549
radi@@ 548
sopra 548
Ness@@ 548
osi 548
arte 548
estrem@@ 547
giorno. 546
amin@@ 546
linea 545
ono, 545
Si@@ 544
raccol@@ 544
sm@@ 544
descri@@ 544
poll@@ 543
ultima 542
racco@@ 542
bito 542
od@@ 542
abile 540
Perciò 540
ben 540
zza. 540
fici@@ 540
CA: 540
tecnologie 540
poteva 540
arli 539
Lu@@ 539
scen@@ 539
risultato 539
io. 539
glie 539
compag@@ 539
ba 539
las@@ 538
buon 537
ele@@ 537
pubbli@@ 536
Vol@@ 535
Nor@@ 535
ù@@ 535
genet@@ 535
passo 535
passare 534
meccan@@ 534
bast@@ 533
dicono 533
film 533
disponi@@ 532
davanti 532
ario. 531
c'erano 531
vanno 531
fur@@ 531
compren@@ 530
avrebbero 530
divi@@ 530
rima@@ 530
pie@@ 530
cident@@ 529
valore 529
Ma@@ 528
Mon@@ 528
otto 528
copi@@ 527
ghiacci@@ 526
risolvere 526
importanti 526
ades@@ 526
orno 526
attu@@ 526
partecip@@ 526
ative 525
ordin@@ 525
...@@ 525
guad@@ 525
emmo 525
stro 525
compet@@ 525
cancro 525
es 525
grafi@@ 524
prodotto 524
vede 524
Mo@@ 524
complet@@ 523
movimento 523
testa 523
andato 523
anta 523
tà 523
mist@@ 522
situazione 522
affrontare 522
perce@@ 522
atti 521
ora. 521
ci, 520
scrivere 520
hi@@ 520
aziende 520
Ric@@ 520
osped@@ 520
d. 519
assist@@ 519
veder@@ 519
icità 519
Li@@ 519
atric@@ 519
orn@@ 518
parlato 518
tagli@@ 518
rin@@ 517
determin@@ 517
venne 516
solito 516
rur@@ 515
fisic@@ 514
risultati 514
gir@@ 514
colo. 514
Oggi 514
tit@@ 514
mont@@ 513
tornare 513
Is@@ 513
terri@@ 513
neg@@ 512
seri@@ 512
del@@ 512
e". 512
asp@@ 511
Ec@@ 511
sugg@@ 511
endo@@ 510
conclu@@ 510
giovani 510
uri 510
pezzo 510
ribu@@ 510
aci@@ 509
tal@@ 509
nell@@ 509
scoprire 509
facile 509
pir@@ 509
storia. 509
accett@@ 509
cultura 509
affron@@ 509
fem@@ 509
stat@@ 509
impatto 508
genere 508
sping@@ 508
malattie 508
centr@@ 507
ascin@@ 507
sco 507
a". 507
modo, 506
princi@@ 506
cosa. 506
minuti 506
stesse 506
sola 505
area 504
denar@@ 504
disse 504
istitu@@ 504
qualità 504
radic@@ 503
ta. 503
dro@@ 503
paura 502
chim@@ 502
attraver@@ 502
parlando 502
arriva 502
sapete 502
costruito 502
sorprend@@ 502
ani. 501
zzare 501
Vorrei 500
mori@@ 500
squ@@ 500
soprat@@ 499
megli@@ 499
sito 499
sette 499
cic@@ 499
Be@@ 499
neur@@ 499
dete, 498
get@@ 498
strumento 498
bile, 498
crimin@@ 498
liv@@ 497
mani 497
speriment@@ 497
dà 495
misur@@ 495
Europ@@ 495
ow@@ 494
persino 494
umano 494
né 494
molto, 494
vero, 493
bo 493
crit@@ 493
loro, 492
vogli@@ 492
colp@@ 492
etto. 492
fest@@ 491
scu@@ 491
energi@@ 491
ame 491
10@@ 491
No, 491
gam@@ 490
san@@ 489
vera 488
esempi@@ 487
salute 486
tram@@ 486
segre@@ 486
visit@@ 486
60 486
son 485
asi@@ 484
mp@@ 484
ario, 482
concentr@@ 482
ino, 482
lim@@ 481
Er@@ 480
as 480
resist@@ 479
ature 479
forni@@ 479
fine, 478
E, 478
inate 478
compas@@ 478
superi@@ 477
identi@@ 475
contest@@ 474
piamo 474
effici@@ 474
sort@@ 474
sign@@ 473
più@@ 471
qualc@@ 471
an, 471
discus@@ 471
sanit@@ 470
ampi@@ 470
Pa@@ 469
bal@@ 469
lat@@ 469
piano 467
cul@@ 467
nego@@ 467
music@@ 465
svilu@@ 465
bamb@@ 465
infor@@ 464
fort@@ 464
gal@@ 464
Car@@ 463
bel 463
nut@@ 463
preced@@ 461
is 460
ma. 459
e" 459
distribu@@ 458
tan@@ 457
aria. 456
pad@@ 455
America 454
erci@@ 454
docu@@ 454
Pen@@ 453
indic@@ 453
movi@@ 452
diag@@ 452
capac@@ 451
12 450
ident@@ 450
mente, 449
"D@@ 449
convin@@ 448
Cor@@ 448
motiv@@ 448
risult@@ 447
camp@@ 447
artist@@ 446
esem@@ 446
ign@@ 446
sac@@ 445
complic@@ 445
occup@@ 444
fortun@@ 443
grav@@ 442
rar@@ 442
luo@@ 441
situ@@ 441
fos@@ 440
mul@@ 440
rare 440
embr@@ 440
ard 439
Secon@@ 439
les@@ 438
Cre@@ 438
terrori@@ 437
sur@@ 436
gin@@ 436
ue 435
enom@@ 435
A, 434
Chi@@ 434
bilit@@ 434
rapid@@ 433
infer@@ 433
nucle@@ 432
societ@@ 431
x 431
test 431
eria 430
vir@@ 430
membr@@ 430
posta 430
let@@ 430
Ben@@ 428
on, 427
bra@@ 427
Re@@ 426
lar@@ 426
fa@@ 425
arri@@ 425
X@@ 425
Internet 425
stri@@ 424
entu@@ 423
robo@@ 423
origin@@ 422
ind@@ 422
ine. 421
recent@@ 420
c'@@ 419
sequ@@ 419
vere 419
ine, 418
combin@@ 418
G: 418
tran@@ 418
frequ@@ 417
bli@@ 416
roc@@ 416
Yor@@ 415
Gu@@ 415
Vo@@ 414
conv@@ 414
inst@@ 413
Ci@@ 412
red@@ 412
neuro@@ 412
gel@@ 411
univers@@ 410
rim@@ 409
ana, 408
leader 408
dimension@@ 407
“@@ 407
separ@@ 407
suff@@ 407
pe 406
commerci@@ 406
ea 404
intro@@ 403
era, 403
natu@@ 402
bio@@ 402
lizz@@ 401
organis@@ 401
199@@ 401
olog@@ 401
200 401
urb@@ 400
US@@ 400
Ge@@ 400
vive 400
clin@@ 399
India 398
%@@ 396
500 396
25 395
ppor@@ 395
compar@@ 395
stati@@ 395
data 395
imp@@ 395
miliar@@ 394
Ni@@ 394
plast@@ 394
curi@@ 391
En@@ 390
mad@@ 390
povert@@ 390
over@@ 389
sul@@ 387
compon@@ 387
Th@@ 387
Sh@@ 387
disa@@ 386
ine@@ 386
DNA 386
ze 386
A. 385
eter@@ 384
nost@@ 384
50@@ 383
probabi@@ 382
ingu@@ 382
0. 381
temper@@ 379
vacc@@ 379
18@@ 379
scopri@@ 378
we@@ 378
nat@@ 377
virus 376
eve 376
passion@@ 376
York 376
convers@@ 375
biolog@@ 375
Bu@@ 375
vest@@ 375
Mi@@ 375
do? 374
nav@@ 374
sil@@ 373
gri@@ 372
omi@@ 372
!" 371
201@@ 371
Amer@@ 370
Sar@@ 370
profession@@ 369
atter@@ 369
S 368
11 368
osci@@ 368
deb@@ 368
mut@@ 368
carri@@ 367
Man@@ 367
gl@@ 366
man 366
t, 366
strate@@ 365
ex@@ 365
No@@ 364
dedic@@ 363
emer@@ 363
vul@@ 361
foll@@ 361
conserv@@ 360
sub@@ 359
consi@@ 359
abor@@ 359
c 359
giun@@ 358
sull@@ 358
rap@@ 358
adul@@ 358
famili@@ 357
Internet@@ 357
Se@@ 356
mb@@ 356
lam@@ 355
ignor@@ 354
Bra@@ 353
associ@@ 352
ste 352
t. 352
18 351
For@@ 351
invit@@ 351
– 351
alis@@ 350
ret@@ 350
abilit@@ 350
atmo@@ 349
ve, 349
M: 349
integr@@ 349
ash@@ 349
quant@@ 349
D 349
tre@@ 349
uom@@ 348
Har@@ 347
class@@ 347
contro@@ 347
tell@@ 347
?@@ 346
indi, 345
teri@@ 345
80 345
possi@@ 345
bac@@ 344
nar@@ 344
brill@@ 344
quar@@ 344
Uni@@ 344
time 342
relig@@ 342
log@@ 341
que@@ 340
bero 339
succe@@ 339
quo@@ 339
us 339
am 339
fron@@ 338
V 338
osa@@ 337
tare 336
De@@ 335
presi@@ 335
risp@@ 335
anno@@ 334
C 333
itt@@ 333
perio@@ 333
attac@@ 332
et 331
fossi@@ 330
duc@@ 330
Chris 329
"A@@ 329
etro 328
he@@ 328
fra@@ 327
vision@@ 326
prob@@ 326
e; 326
ah@@ 324
a-@@ 324
e?" 324
sb@@ 324
partic@@ 323
an. 323
proto@@ 323
up@@ 323
Ira@@ 323
milit@@ 322
Jo@@ 322
Bo@@ 322
ve. 321
stupi@@ 321
At@@ 320
equ@@ 317
atori@@ 317
ki@@ 317
dell@@ 317
student@@ 317
umento 316
evi@@ 316
comm@@ 316
ep@@ 316
Im@@ 316
quell@@ 315
esso@@ 314
"M@@ 314
gas 313
flu@@ 312
gent@@ 312
auti@@ 312
virtu@@ 311
pit@@ 311
clu@@ 311
star@@ 310
tol@@ 310
stand@@ 310
gram@@ 310
ho@@ 309
lead@@ 309
domin@@ 308
grazi@@ 308
HI@@ 308
gover@@ 308
tel@@ 307
est 305
male 305
azi@@ 305
ee 304
sup@@ 303
ack@@ 302
idea. 302
wit@@ 302
rapi@@ 301
altern@@ 301
Au@@ 301
Google 299
ph@@ 299
go, 299
unqu@@ 298
vers@@ 297
sto@@ 297
ga@@ 297
cru@@ 296
z 296
it 296
vel@@ 296
San 296
," 295
ster@@ 295
Americ@@ 294
infra@@ 294
resi@@ 293
at 292
ay@@ 291
ill 291
fant@@ 289
Gre@@ 288
Col@@ 288
fini@@ 288
dd@@ 288
stron@@ 288
blu@@ 287
traff@@ 287
70 286
immag@@ 286
100@@ 285
5, 285
fortunat@@ 285
pac@@ 285
canc@@ 285
bro@@ 285
f 284
ggi 284
percent@@ 283
fru@@ 283
B: 283
CO@@ 282
es, 282
ach@@ 282
lau@@ 281
multi@@ 279
intu@@ 279
stic@@ 278
simul@@ 278
team 277
epide@@ 277
osp@@ 277
ear@@ 276
Wi@@ 276
muc@@ 276
Mc@@ 276
David 275
software 275
ID@@ 275
creati@@ 274
inclu@@ 274
Or@@ 274
contin@@ 272
Californi@@ 272
aw@@ 271
Ver@@ 270
remo@@ 270
So@@ 269
nam@@ 269
prove 269
Univers@@ 268
anal@@ 268
e-@@ 268
2, 267
Ger@@ 267
m, 266
Ber@@ 266
Africa, 266
John 265
ry 264
Dav@@ 264
OK@@ 263
spec@@ 263
alg@@ 262
Do@@ 260
pian@@ 259
intell@@ 259
So 258
m. 258
Face@@ 258
har@@ 257
Quest@@ 257
° 257
Don@@ 257
case 257
tin@@ 256
in, 256
ade@@ 256
opportun@@ 256
dise@@ 256
cellu@@ 255
pati@@ 255
ey 254
198@@ 254
sum@@ 254
volu@@ 253
realt@@ 253
immediat@@ 252
go. 252
sta@@ 252
Inter@@ 252
list@@ 251
of 249
conce@@ 249
satell@@ 249
ste@@ 249
Cent@@ 249
ili@@ 249
He@@ 249
real@@ 248
Lo@@ 247
ing, 247
90 246
Afghanist@@ 246
cogn@@ 246
ghi@@ 245
oggi@@ 245
cultu@@ 245
en, 244
all 244
inform@@ 244
clim@@ 243
web@@ 243
gett@@ 242
emerg@@ 241
bit@@ 241
/@@ 240
pena 239
on. 238
Ken@@ 238
Char@@ 237
ession@@ 236
us, 236
visu@@ 236
element@@ 236
care 236
interno 235
suppor@@ 232
ton 231
Can@@ 231
dri@@ 231
babi@@ 230
tecnolo@@ 230
Ju@@ 229
spon@@ 228
” 228
mac@@ 227
land@@ 227
DN@@ 226
idea, 225
um 225
ado@@ 224
Mus@@ 224
lob@@ 224
ago 223
rius@@ 223
char@@ 223
”@@ 223
ke 223
ure 222
lor@@ 222
enc@@ 221
elec@@ 220
ey@@ 219
more 218
duce 217
circu@@ 217
us. 216
acco 216
Africa. 216
put@@ 215
lon@@ 215
nov@@ 214
Ph@@ 214
decision@@ 214
fram@@ 213
her@@ 213
strugg@@ 212
L 212
produce 211
camera 211
bur@@ 210
1, 210
der 210
pre 209
es. 209
gol@@ 208
nem@@ 207
ce. 206
epi@@ 206
online 206
ity 205
incre@@ 205
Chri@@ 203
T 203
bir@@ 203
kin@@ 202
dig@@ 201
wi@@ 200
rib@@ 199
spo@@ 199
foc@@ 199
rem@@ 196
use 196
ir 196
loso@@ 196
desi@@ 195
ing. 195
ter 195
social 195
celebr@@ 194
net 194
Joh@@ 193
oun@@ 193
S. 192
business 192
Goog@@ 192
as, 191
g, 191
Q@@ 190
We@@ 190
ick 189
evid@@ 189
fir@@ 189
of@@ 188
possibilit@@ 188
ay 188
wa@@ 187
X 186
st 186
ice. 185
ulti@@ 184
Go@@ 184
ade 183
q@@ 182
ick@@ 182
od 182
To@@ 181
omet@@ 181
ner 180
Wh@@ 180
nolo@@ 180
manu@@ 179
ei@@ 179
wo@@ 178
ce, 177
mic@@ 177
:@@ 177
die 176
pur@@ 175
aro@@ 175
dre@@ 175
produc@@ 174
ever@@ 173
itut@@ 171
ice, 171
attr@@ 170
ong 170
age 167
ss 167
cco 166
n, 166
Ho@@ 166
doll@@ 166
trav@@ 166
dra@@ 166
assolut@@ 165
]@@ 165
as. 165
les 165
inste@@ 165
— 165
mis@@ 164
y: 164
our@@ 164
cho@@ 163
amer@@ 162
altr@@ 161
boo@@ 159
w 159
ational 157
ation 157
get 157
You@@ 157
fro@@ 157
Fi@@ 156
selv@@ 156
appro@@ 156
fri@@ 156
Ac@@ 155
!@@ 155
ers 154
minut@@ 153
ail@@ 153
opl@@ 153
sof@@ 152
abbast@@ 152
cerv@@ 152
audi@@ 151
posit@@ 151
the 151
Pe@@ 149
religi@@ 149
softw@@ 149
our 149
p, 148
om 148
os 147
performan@@ 146
by 146
en. 146
ex 145
chil@@ 145
setti@@ 145
♫@@ 145
..@@ 144
forman@@ 144
cause 143
agg@@ 143
The 143
question@@ 143
dy 143
centin@@ 142
market@@ 142
non-@@ 142
sec@@ 140
A: 140
ship 140
ch 139
el, 139
esatt@@ 137
ack 137
open@@ 136
p. 135
tuto 135
diffici@@ 134
aia 134
sk@@ 133
in. 133
G 132
liz@@ 132
ef@@ 132
ary 132
den 131
trac@@ 130
Oka@@ 130
ft 129
bloc@@ 129
's 128
favor@@ 127
labor@@ 127
B 126
parteci@@ 126
important@@ 126
x, 126
trans@@ 126
Grazi@@ 126
ke@@ 126
Afric@@ 126
row@@ 126
eng@@ 125
&@@ 125
terr@@ 125
g. 125
consum@@ 124
ain@@ 123
book 123
sli@@ 122
r. 122
fut@@ 121
demo@@ 121
al, 121
Euro@@ 120
reli@@ 119
arch@@ 118
signi@@ 118
ans 118
igli@@ 118
concer@@ 118
sel@@ 118
v 118
pt@@ 117
tive 117
ow, 117
World 117
figu@@ 117
sud@@ 116
commer@@ 116
ile 116
ka@@ 116
s: 115
agu@@ 114
it, 114
work 114
icip@@ 113
my 113
al. 112
shi@@ 112
recor@@ 112
bun@@ 112
ath@@ 112
et. 111
’ 111
busin@@ 110
war@@ 110
ah, 109
the@@ 108
plan@@ 108
dam@@ 108
bec@@ 107
It@@ 107
ter, 107
tru@@ 106
ance 106
imes 106
"I 106
ace@@ 105
Ex@@ 104
omia 103
;@@ 103
bab@@ 103
n. 102
sult@@ 101
bus@@ 101
organi@@ 101
gradu@@ 101
culture 100
M 100
q 100
elet@@ 99
create 98
et, 98
ith 98
Wor@@ 98
king 98
set 97
basi@@ 97
ans@@ 97
P 97
U 97
land 97
plac@@ 96
manag@@ 96
inte@@ 95
doc@@ 95
sai@@ 95
Brit@@ 94
0 94
immedi@@ 94
wat@@ 94
ppo 94
alcun@@ 94
end 94
ster 94
hu@@ 93
sl@@ 93
back 92
R 92
sourc@@ 92
word 92
ney 91
ll 91
poss@@ 90
ort 90
anci@@ 89
pose 89
ther@@ 89
tto@@ 89
consci@@ 89
ure@@ 89
litt@@ 88
ence 88
scale 88
ic 87
ess 87
fe 87
ast 87
line 87
up 86
ion 86
sure 86
"The 86
sopr@@ 86
th, 85
cr@@ 85
top 85
cy@@ 85
ver 84
ch, 84
man, 83
ent 83
source 83
open 83
than 83
ur 82
invol@@ 81
ly 81
ced@@ 80
indu@@ 80
graph@@ 79
or, 79
cop@@ 79
he 79
Ever@@ 78
biamo 78
gh 78
ter. 78
stop@@ 78
low@@ 77
tor 77
long@@ 77
fast@@ 77
ess. 76
K 76
emat@@ 76
sun@@ 76
ú 76
togra@@ 75
sy@@ 75
it. 75
aliz@@ 75
ell 74
ago, 74
ther 74
sport@@ 74
ds 72
sino 72
N 72
ks 71
nuc@@ 71
for 71
attro 70
On@@ 70
futu@@ 70
even 70
pla@@ 70
ft@@ 69
No 69
all. 69
dg@@ 69
art 69
svi@@ 69
,000 68
ant 68
«@@ 68
ago. 67
sex@@ 67
ber 67
dispon@@ 66
low 66
ribut@@ 66
larg@@ 66
@@@ 66
chem@@ 65
ch. 65
solut@@ 65
all, 65
ut 65
wor@@ 65
fol@@ 64
É 64
ow 64
put 64
ous@@ 63
y? 63
car 63
coun@@ 63
cancer@@ 62
ess, 62
$@@ 62
ush@@ 62
appe@@ 62
Ѐ 62
bet@@ 61
ad, 61
itive 61
rai@@ 61
ish 61
espe@@ 61
right 60
scre@@ 60
out@@ 60
ful@@ 60
Vor@@ 59
South 59
ju@@ 59
utto@@ 59
also 59
Tran@@ 59
cele@@ 59
rou@@ 59
ild@@ 58
provi@@ 57
be, 56
sever@@ 56
sav@@ 56
any@@ 55
und 55
lab@@ 55
acro@@ 55
nec@@ 55
detto@@ 55
talk 55
$ 54
ity, 54
… 54
show 53
use, 53
dow@@ 53
tech@@ 53
wee@@ 53
tion 53
ical 53
ward 53
ach 53
had 53
figure 52
ens 52
á 52
F 52
or. 52
cra@@ 52
dy@@ 52
ush 51
ad. 51
mak@@ 51
foot@@ 51
her 51
ot 51
á@@ 51
ates 50
is, 50
now@@ 50
predic@@ 50
lif@@ 49
ic, 49
kill@@ 49
age, 49
ok 49
ation, 48
ral 48
tivit@@ 48
des 48
í@@ 48
phone 48
parte@@ 47
ak 47
ed, 47
jec@@ 47
ble 47
#@@ 46
ts 46
ory 46
ones 46
ves 46
ling 46
flo@@ 46
ation@@ 46
patter@@ 46
Earth 46
cus 45
care@@ 45
well 45
red 45
ich 45
st, 45
ax@@ 45
plor@@ 45
ren 45
id 44
ers, 44
inspi@@ 44
is. 44
win@@ 44
ome 44
side 44
back@@ 44
d-@@ 43
od. 43
Y 43
H 43
insi@@ 43
bill@@ 43
Af@@ 42
him@@ 42
lear@@ 42
bit 42
alth 42
extra@@ 41
hy@@ 41
und@@ 41
American 41
@@ 41
Let@@ 40
age. 40
at, 40
tou@@ 40
Ear@@ 40
» 40
ign 40
od, 40
petro@@ 39
siasi 39
y-@@ 39
TE@@ 39
sat@@ 39
ver, 39
air@@ 39
ment 39
ity. 39
imag@@ 38
 @@ 38
ic. 38
í 38
run@@ 38
at. 38
th. 37
new@@ 37
success@@ 37
way 37
jo@@ 37
work. 37
ght@@ 37
mach@@ 37
impat@@ 36
ange 36
men 36
/ 36
cle@@ 36
ps 35
work@@ 35
avigli@@ 35
°@@ 34
mov@@ 34
ó 34
future 34
fiel@@ 34
ement 34
ating 34
Ye@@ 34
cun@@ 33
) 33
cover@@ 33
int 33
time, 33
loo@@ 33
ake 33
+ 33
high@@ 32
ion, 32
sive 32
ins 32
orth 32
more. 32
hal@@ 32
deca@@ 31
icul@@ 31
»@@ 31
and, 31
hum@@ 31
piutto@@ 30
ness 30
igh@@ 30
oul@@ 30
+@@ 30
ght 30
ous 30
anist@@ 29
gh, 29
ation. 29
gone 29
ff 29
up, 28
Stat@@ 28
sh 28
wh@@ 28
play 28
cou@@ 28
j 28
time. 28
ion. 27
ó@@ 27
shar@@ 27
ye@@ 27
ond 27
any 27
let 27
eccan@@ 27
work, 27
able 26
W 26
One 26
sho@@ 26
´@@ 26
s? 26
hop@@ 26
ep 26
personal 26
single 26
read@@ 26
ou 26
blem@@ 26
th 25
citi@@ 25
rece@@ 25
sion 25
*@@ 25
vie@@ 25
reali@@ 25
ple 25
ö@@ 25
chan@@ 25
hor@@ 25
ox@@ 24
ed. 24
fli@@ 24
st. 24
chang@@ 24
= 24
ty 24
out 24
wal@@ 24
bed 24
ally 23
over 23
res 23
tion@@ 23
ut, 23
ain 23
hel@@ 23
stem@@ 23
play@@ 22
ns 22
Z 22
ines 22
under@@ 22
ground 22
national 22
up. 22
obbiamo 22
_@@ 22
gy 21
mark@@ 21
reas@@ 21
hap@@ 21
J 21
spac@@ 21
old 21
ys 21
Possi@@ 21
we 21
big 21
ance. 20
ics 20
ance, 20
hard 20
air 20
ings 20
pt 20
Q 20
ers. 20
ever 20
show@@ 20
depen@@ 20
opport@@ 19
U.@@ 19
right, 19
day 19
hav@@ 19
key 19
ence, 19
und, 19
start@@ 19
ering 19
s." 19
stop 19
ders 19
lot 18
anis@@ 18
stem 18
done 18
ank 18
tail@@ 18
my@@ 18
ks, 18
egn@@ 18
dom 18
hon@@ 18
beh@@ 17
right. 17
hand@@ 17
ms 17
ell, 17
ble, 17
aliforni@@ 17
ect 17
how 17
ping 17
United 17
ding 17
achi@@ 17
ã@@ 17
off 16
was@@ 16
way, 16
ons 16
well, 16
ust 16
act@@ 16
she@@ 16
ç@@ 16
vidu@@ 15
ics, 15
hou@@ 15
=@@ 15
king, 15
My 15
What 15
very 15
space 15
ble. 15
ks. 15
level@@ 15
themat@@ 15
ving 15
flow@@ 15
ily 15
see, 14
solve 14
organiz@@ 14
(@@ 14
cover 14
ors 14
ds, 14
now 14
game 14
fic 14
act 14
ken 14
Chin@@ 14
ath 14
own 14
ñ@@ 14
dent 14
­@@ 14
sic 13
face 13
e's 13
ind 13
ty@@ 13
head@@ 13
its 13
grand@@ 13
lling 13
well@@ 12
ations 12
sour@@ 12
ds. 12
view 12
pub@@ 12
she 12
tow@@ 12
s' 12
live 12
y." 12
food 12
ly. 12
Afgh@@ 12
ition 12
not 11
U.S. 11
clo@@ 11
ets 11
life 11
y's 11
world 11
ining 11
ould 11
econ@@ 11
driv@@ 11
ect@@ 11
You 11
if 11
lik@@ 11
follow@@ 11
hol@@ 11
you 11
power 10
ent, 10
tic 10
look 10
tradit@@ 10
ghts 10
Now 10
ful 10
forc@@ 10
hun@@ 10
ning 10
gs 10
We 10
ence. 10
“ 10
alk 10
hom@@ 10
entire 10
ther, 10
law@@ 10
house 10
ly, 10
ght, 10
sle@@ 10
È@@ 10
und. 10
water 10
power@@ 10
oft@@ 10
She 10
tw@@ 9
ld 9
see 9
ts, 9
step 9
ention 9
day. 9
Sub@@ 9
try 9
that 9
respon@@ 9
argu@@ 9
Every@@ 9
home 9
down 9
ely 9
struc@@ 9
ming 9
ying 9
ü@@ 9
point@@ 9
als 9
free@@ 9
rest 9
♪@@ 8
made 8
market 8
call 8
nex@@ 8
commun@@ 8
ask 8
night 8
cent 8
ses 8
them@@ 8
Just 8
* 8
country 8
ready 8
some 8
ext@@ 8
community 8
ated 8
thing@@ 8
ts. 8
All 8
view@@ 8
ters 8
projec@@ 8
kes 8
´ 8
Dop@@ 8
etter 8
lem 8
group 8
friend@@ 8
envi@@ 8
high 7
well. 7
ting 7
pho@@ 7
full@@ 7
head 7
who@@ 7
To 7
fish 7
him 7
war 7
ment, 7
can 7
problem 7
ä@@ 7
This 7
school 7
mental 7
exper@@ 7
new 7
read 7
school@@ 7
pow@@ 7
Engli@@ 7
ø@@ 7
able, 6
ys, 6
point 6
you@@ 6
It's 6
hold 6
ys. 6
human 6
langu@@ 6
diffic@@ 6
tern@@ 6
give 6
led 6
from 6
call@@ 6
ption 6
eas@@ 6
arth 6
ular 6
ght. 6
room 6
this 6
ked 6
cost 6
ences 6
front 6
[ 6
ants 6
working 6
ded 6
say 6
thin@@ 6
  5
tions 5
way. 5
room@@ 5
tion. 5
They 5
out, 5
cour@@ 5
city 5
indi 5
als. 5
technologi@@ 5
cle 5
beli@@ 5
bod@@ 5
somet@@ 5
ities 5
…@@ 5
global 5
direc@@ 5
als, 5
throu@@ 5
nature 5
with 5
bloo@@ 5
nee@@ 5
ā@@ 5
row 5
run 5
where 5
think 5
each 5
middle 5
ely, 4
dou@@ 4
ions 4
‘@@ 4
best 4
electr@@ 4
botto@@ 4
Do 4
condit@@ 4
world@@ 4
will 4
ically 4
right@@ 4
ered 4
fish@@ 4
story 4
ú@@ 4
love 4
have 4
thou@@ 4
atic 4
met 4
certa@@ 4
works 4
which 4
possible 4
dru@@ 4
ê@@ 4
full 4
engine@@ 4
want 4
fund@@ 4
your 4
Not 4
These 4
It 4
building 4
ents 4
job@@ 4
wards 4
ous, 4
path@@ 4
clear@@ 4
ally, 4
light 4
ations, 4
อ@@ 4
ū@@ 4
¼ 3
coup@@ 3
ions, 3
got 3
€ 3
ching 3
Our 3
beg@@ 3
ent. 3
now, 3
ven 3
²@@ 3
ies 3
Is 3
self 3
emot@@ 3
gave 3
his 3
` 3
child 3
stain@@ 3
rul@@ 3
If 3
jour@@ 3
outh 3
ther. 3
gets 3
led@@ 3
tors 3
actu@@ 3
Now, 3
order 3
–@@ 3
was 3
thes@@ 3
ional 3
piece 3
when 3
can't 3
kind 3
information 3
ual 3
it? 3
build@@ 3
hope 3
free 3
ending 3
collec@@ 3
girl@@ 3
I'm 3
exp@@ 3
light@@ 3
ë@@ 3
ands 3
four@@ 3
some@@ 3
entist@@ 3
would 3
build 3
't 3
—@@ 3
º@@ 3
º 3
bey@@ 3
writ@@ 3
only 3
won@@ 3
countr@@ 3
_ 3
thre@@ 3
about 3
easy 2
½ 2
’s 2
less 2
objec@@ 2
responsi@@ 2
arly 2
system@@ 2
maj@@ 2
know@@ 2
model@@ 2
model 2
How 2
`@@ 2
coming 2
away 2
)@@ 2
science 2
ices 2
four 2
told 2
ught 2
project 2
û 2
And 2
company 2
tion, 2
ampl@@ 2
body 2
why 2
plant@@ 2
other 2
I'@@ 2
change 2
feel 2
imagine 2
es? 2
bly 2
agre@@ 2
sort 2
â@@ 2
found 2
ions. 2
tty 2
lea@@ 2
© 2
@ 2
just 2
piec@@ 2
happy 2
feeling 2
² 2
person 2
most 2
yet 2
ć 2
˚ 2
bbiamo 2
É@@ 2
mone@@ 2
ï@@ 2
black 2
out. 2
walk 2
once 2
hosp@@ 2
effec@@ 2
Here 2
ability 2
kids 2
amount 2
day, 2
group@@ 2
hist@@ 2
name 2
under 2
happ@@ 2
At 2
Ó@@ 2
thing 2
​@@ 2
interest@@ 2
ć@@ 2
thing. 2
When 2
like 2
this@@ 2
your@@ 2
he's 2
ments 2
ร@@ 2
่@@ 2
form 2
But 2
^ 2
Á@@ 2
there's 2
may 2
but 2
ply 2
phy@@ 2
People 2
midd@@ 2
́@@ 2
́ 2
ined 2
need 2
æ@@ 2
common 2
« 2
says 2
learning 2
everything 2
with@@ 2
every 2
ŧ@@ 2
Why 2
next 2
ful, 2
able. 1
Ì@@ 1
've 1
poor 1
part 1
right? 1
fter 1
lots 1
amaz@@ 1
human@@ 1
life. 1
™ 1
anything 1
students 1
İ@@ 1
long 1
Here's 1
nostr@@ 1
® 1
architec@@ 1
don't 1
good 1
main 1
ched 1
ž@@ 1
ѐ 1
publi@@ 1
¼@@ 1
¥ 1
technolo@@ 1
ages 1
communic@@ 1
real 1
felt 1
companies 1
amoun@@ 1
ment. 1
gn 1
self, 1
woman 1
you, 1
such 1
ations. 1
billion 1
centur@@ 1
climate 1
ś@@ 1
buil@@ 1
other@@ 1
£@@ 1
^@@ 1
Ç@@ 1
know, 1
recogn@@ 1
ample 1
brain 1
brea@@ 1
‘ 1
experience 1
hospit@@ 1
music 1
³@@ 1
valu@@ 1
structu@@ 1
¾ 1
curr@@ 1
ē@@ 1
times 1
He 1
psy@@ 1
share 1
€@@ 1
cell 1
start 1
thous@@ 1
Well, 1
quite 1
func@@ 1
see@@ 1
access 1
ways 1
physical 1
want@@ 1
moment 1
technolog@@ 1
ȏ@@ 1
size 1
 1
@@ 1
 1
health 1
I'll 1
self-@@ 1
hour@@ 1
young 1
while 1
means 1
called 1
─ 1
question 1
Let 1
worl@@ 1
Can 1
Ѐ@@ 1
research@@ 1
kno@@ 1
zed 1
beautiful 1
public 1
ย 1
ย@@ 1
Well 1
On 1
that, 1
take 1
least 1
kinds 1
know 1
now. 1
seeing 1
through 1
what 1
might 1
like, 1
them. 1
based 1
research 1
ʿ@@ 1
who 1
first 1
say, 1
ause 1
place 1
did 1
Thank 1
last 1
sing 1
For 1
arch 1
interac@@ 1
Č@@ 1
Let's 1
sound 1
ë 1
say@@ 1
answ@@ 1
wro@@ 1
‒@@ 1
creating 1
sense 1
early 1
years 1
later, 1
believ@@ 1
type 1
great@@ 1
world's 1
comes 1
﻿@@ 1
news 1
Å@@ 1
hear@@ 1
telling 1
hand 1
― 1
ě@@ 1
quality 1
control 1
gives 1
ved 1
things 1
too 1
shows 1
having 1
it's 1
ally. 1
across 1
whe@@ 1
activit@@ 1
tell 1
isn't 1
true 1
ā 1
ī@@ 1
created 1
help 1
make 1
these 1
ł@@ 1
year@@ 1
youn@@ 1
used 1
known 1
their 1
history 1
happens 1
liter@@ 1
them 1
grow 1
technology 1
wonder@@ 1
¿@@ 1
then, 1
chall@@ 1
