the 185889
to 117468
of 108331
and 104546
a 101205
in 73608
that 71244
I 60986
is 56409
you 46734
we 42787
And 39417
s 35470
it 35026
this 33782
, 33558
. 33042
ed 28942
ing 27781
on 27698
was 27429
for 26631
are 26105
have 24764
-- 23559
es 22877
with 22493
re@@ 20791
at 20510
an 19925
they 19719
s, 19487
y 19338
as 19070
can 19013
about 18948
be 18657
what 18319
s. 18116
all 16779
So 16702
-@@ 16305
s@@ 16240
not 16104
al 15952
or 15653
e. 15403
e, 15163
my 14995
one 14708
er 14495
from 14252
in@@ 14126
do 14079
b@@ 13653
our 13579
e@@ 13386
like 13334
de@@ 13295
so 13275
but 13200
y@@ 13037
it's 12822
y, 12536
"@@ 12519
just 12408
people 12175
t 12101
f@@ 12084
es, 11893
But 11469
very 11461
a@@ 11414
if 11346
these 11286
The 11263
d@@ 11172
h@@ 11103
S@@ 11009
i@@ 11001
by 10963
? 10866
es. 10781
w@@ 10758
t@@ 10715
y. 10600
g@@ 10484
going 10347
st@@ 10276
out 10205
: 10166
when 10067
k@@ 9970
had 9793
en@@ 9763
We 9755
because 9740
l@@ 9664
more 9613
n@@ 9505
how 9500
p@@ 9397
their 9346
un@@ 9287
it@@ 9160
your 9105
were 9093
get 9089
which 8985
ar@@ 8957
up 8907
would 8893
e 8839
he 8775
m@@ 8648
there 8643
o@@ 8536
ic@@ 8517
who 8512
think 8458
me 8439
d 8359
really 8355
ex@@ 8303
on@@ 8262
see 8179
er@@ 8167
I'm 8086
ly 8028
ation 7990
r@@ 7940
sh@@ 7909
A@@ 7877
It's 7863
al@@ 7857
B@@ 7854
M@@ 7812
has 7789
This 7761
an@@ 7736
at@@ 7694
u@@ 7693
th@@ 7666
ch@@ 7656
where 7533
some 7527
se@@ 7521
into 7462
ate 7396
ac@@ 7364
di@@ 7354
c@@ 7316
them 7203
us 7152
don't 7056
T@@ 7053
It 6969
el@@ 6927
then 6926
ro@@ 6920
that's 6852
m 6805
will 6777
li@@ 6766
ri@@ 6726
You 6722
actually 6697
know 6647
." 6554
could 6491
or@@ 6419
ing, 6337
been 6309
make 6281
ing. 6259
want 6258
k 6236
P@@ 6218
d, 6160
z@@ 6136
ap@@ 6126
able 6045
ers 6035
ad@@ 6023
as@@ 5989
im@@ 5977
other 5954
go 5944
am@@ 5900
C@@ 5891
H@@ 5829
et@@ 5797
to@@ 5773
than 5753
mo@@ 5639
ally 5637
mi@@ 5625
way 5614
co@@ 5611
's 5583
E@@ 5558
lo@@ 5546
D@@ 5465
ar 5403
those 5386
it. 5378
n 5373
le@@ 5354
ent 5352
si@@ 5342
for@@ 5311
ab@@ 5285
things 5219
bo@@ 5217
ing@@ 5191
W@@ 5185
something 5167
em@@ 5157
tion 5120
con@@ 5093
They 5087
got 5060
his 5049
ity 4999
first 4994
In 4981
little 4949
R@@ 4927
ed, 4907
no 4877
also 4874
pl@@ 4844
es@@ 4836
we're 4836
ed. 4808
d. 4788
be@@ 4777
look 4749
F@@ 4746
G@@ 4741
two 4741
time 4724
age 4717
en 4687
years 4683
ul@@ 4682
N@@ 4679
only 4679
most 4664
ra@@ 4644
pro@@ 4597
even 4589
ag@@ 4574
est 4559
ur@@ 4550
L@@ 4535
now 4505
over 4469
ts 4465
need 4430
ol@@ 4428
v@@ 4424
p 4407
ti@@ 4380
se 4376
we@@ 4350
ous 4338
much 4331
fi@@ 4316
take 4303
h 4293
ical 4259
do@@ 4245
le 4240
back 4233
many 4218
kind 4218
ph@@ 4201
here 4192
ed@@ 4189
thing 4176
lot 4147
me@@ 4137
st 4130
new 4129
no@@ 4128
she 4118
1@@ 4113
you're 4106
world 4086
sp@@ 4081
wh@@ 4081
What 4079
ent@@ 4072
us@@ 4071
c 4064
ice 4030
ks 4018
come 3992
O@@ 3982
t, 3957
t. 3946
ated 3921
♫ 3912
il@@ 3910
said, 3893
its 3876
ec@@ 3836
there's 3827
it, 3826
work 3823
per@@ 3792
k, 3775
er, 3757
pa@@ 3755
J@@ 3721
every 3709
through 3701
po@@ 3690
K@@ 3685
ll@@ 3679
right 3677
is@@ 3665
use 3648
str@@ 3628
ic 3614
around 3610
Now, 3586
So, 3558
different 3554
ma@@ 3548
did 3534
est@@ 3488
her 3484
they're 3471
um@@ 3467
de 3466
er. 3448
put 3442
being 3435
If 3433
ver@@ 3431
any 3409
ut@@ 3402
same 3389
a, 3384
know, 3336
car@@ 3314
good 3292
min@@ 3280
; 3263
ds 3261
I@@ 3258
com@@ 3252
ter@@ 3248
king 3243
go@@ 3235
called 3189
ne@@ 3180
tr@@ 3180
ine 3160
g 3146
so@@ 3135
ely 3096
Now 3076
op@@ 3060
bl@@ 3056
x@@ 3056
ta@@ 3053
su@@ 3033
ded 3005
om@@ 3003
j@@ 2984
I've 2975
He 2960
cre@@ 2957
gen@@ 2930
doing 2928
sur@@ 2917
fe@@ 2912
made 2907
k. 2897
down 2895
ou@@ 2891
own 2886
th 2884
ation, 2880
wor@@ 2874
ant 2873
that, 2864
you. 2857
ation. 2854
pre@@ 2851
ther@@ 2851
That's 2838
ve 2833
find 2833
tell 2828
wi@@ 2824
ying 2819
ence 2817
dis@@ 2812
A 2808
tu@@ 2803
l 2787
three 2786
la@@ 2785
ch 2784
ary 2781
is, 2775
fin@@ 2770
ding 2765
human 2762
fac@@ 2759
a. 2741
red 2735
bi@@ 2725
wa@@ 2701
man@@ 2694
et 2688
didn't 2674
used 2665
why 2660
ev@@ 2654
2@@ 2650
3@@ 2644
ating 2635
life 2618
.@@ 2594
ever 2593
ting 2576
pi@@ 2575
ant@@ 2573
par@@ 2568
percent 2565
might 2558
talk 2552
after 2546
ci@@ 2544
TED 2539
say 2538
ly, 2531
started 2524
all@@ 2513
Th@@ 2505
should 2502
qu@@ 2496
te@@ 2493
ment 2492
gu@@ 2484
give 2482
fl@@ 2480
last 2469
wat@@ 2466
we've 2464
There 2453
went 2447
Thank 2441
sc@@ 2424
ite 2423
Well, 2423
ations 2416
ot@@ 2415
any@@ 2415
inter@@ 2414
ted 2413
enc@@ 2411
?" 2408
end 2396
form@@ 2393
war@@ 2385
cl@@ 2380
never 2375
day 2372
can't 2371
fo@@ 2366
av@@ 2364
il 2332
sion 2330
pe@@ 2323
ir@@ 2315
'@@ 2305
off@@ 2301
great 2295
,000 2286
vi@@ 2285
mon@@ 2281
change 2281
ho@@ 2279
mat@@ 2272
big 2270
ess@@ 2260
per 2258
tra@@ 2249
still 2243
son@@ 2237
att@@ 2230
gh@@ 2225
ber@@ 2214
When 2213
w 2210
ad 2200
gi@@ 2200
ge 2193
," 2190
ance 2187
me, 2184
produc@@ 2183
chang@@ 2181
few 2172
came 2162
cont@@ 2155
start 2155
da@@ 2153
each 2152
mar@@ 2150
that. 2149
ear@@ 2145
od 2144
am 2143
between 2129
show 2128
How 2126
part 2125
der@@ 2124
found 2121
next 2119
ali@@ 2117
another 2112
" 2111
he@@ 2107
hi@@ 2101
der 2092
4@@ 2090
ally, 2089
her@@ 2085
this. 2078
say, 2078
ve@@ 2077
That 2071
o 2068
bit 2064
mor@@ 2059
ble 2059
ist@@ 2051
and@@ 2050
ori@@ 2048
ki@@ 2048
ce 2046
ast@@ 2042
idea 2040
al, 2031
trans@@ 2031
als 2030
looking 2028
old 2020
on, 2016
body 2016
An@@ 2014
ey@@ 2008
ak@@ 2005
re. 2004
ght@@ 2002
lin@@ 1998
Talk 1990
ther 1983
les 1976
does 1976
better 1975
ect 1974
comes 1967
less 1966
cor@@ 1953
art@@ 1941
plan@@ 1941
them. 1933
e? 1931
important 1929
exp@@ 1929
gener@@ 1925
b 1923
tri@@ 1918
re, 1918
on. 1917
ked 1912
ion, 1911
Wh@@ 1908
spe@@ 1904
Subtitles 1902
Transcript: 1902
pri@@ 1897
sol@@ 1895
doesn't 1895
oc@@ 1886
ion. 1886
end@@ 1885
work@@ 1884
x 1879
wanted 1879
cho@@ 1879
ni@@ 1874
off 1872
al. 1870
re 1870
sort 1869
gra@@ 1866
using 1860
Because 1858
ang@@ 1855
r 1850
ment@@ 1849
hand@@ 1843
ess 1843
gre@@ 1839
Ch@@ 1837
tre@@ 1837
met@@ 1836
br@@ 1834
Y@@ 1829
ions 1828
world. 1825
this, 1821
trying 1817
air@@ 1814
anc@@ 1813
before 1813
liv@@ 1811
call 1811
ses 1808
dow@@ 1804
time, 1798
V@@ 1795
har@@ 1793
ke 1793
res 1790
may 1789
ative 1785
ge@@ 1782
ide@@ 1776
said 1775
thought 1775
act 1774
ings 1772
bu@@ 1771
try 1771
0@@ 1770
sa@@ 1767
tive 1767
always 1767
whole 1765
ici@@ 1763
ion@@ 1759
up@@ 1751
other@@ 1750
St@@ 1748
long 1739
understand 1730
ates 1728
the@@ 1728
pt@@ 1726
en, 1726
ell@@ 1725
way, 1716
7@@ 1712
working 1708
imag@@ 1698
ity. 1697
place 1694
int@@ 1688
ans 1688
million 1688
rel@@ 1679
speci@@ 1679
high@@ 1679
some@@ 1673
6@@ 1670
ase 1669
low@@ 1669
ze 1668
connec@@ 1668
el 1664
part@@ 1660
real 1660
ain@@ 1656
ten@@ 1655
e-@@ 1655
design@@ 1655
fact, 1654
what's 1650
e's 1642
ach@@ 1641
ow@@ 1639
ers, 1639
stre@@ 1638
over@@ 1637
ning 1631
feel 1630
happen@@ 1627
sen@@ 1626
took 1626
live 1625
pic@@ 1624
create 1619
pol@@ 1617
gr@@ 1616
iti@@ 1614
There's 1611
coming 1611
th. 1608
ful 1608
help 1604
'd 1602
ach 1601
char@@ 1596
thing. 1595
love 1594
10 1591
in, 1585
here, 1585
und@@ 1585
serv@@ 1582
believe 1582
shi@@ 1575
become 1572
th, 1570
ity, 1568
you, 1566
o. 1564
tor@@ 1562
ke@@ 1559
plac@@ 1556
human@@ 1555
time. 1555
My 1552
bre@@ 1551
getting 1550
four 1547
out@@ 1543
f 1536
uc@@ 1532
there. 1532
dre@@ 1531
vo@@ 1529
rac@@ 1529
o, 1526
brain 1525
pla@@ 1524
me. 1522
maybe 1521
year 1517
us. 1516
ob@@ 1515
ep@@ 1514
story 1512
making 1512
mag@@ 1511
hel@@ 1510
in. 1509
him 1503
us, 1502
y? 1500
ities 1498
These 1497
ari@@ 1495
bra@@ 1494
course, 1493
I'd 1491
water 1491
too 1487
5@@ 1486
ry 1485
pr@@ 1484
quite 1483
land@@ 1482
means 1477
cent@@ 1475
ons 1475
se. 1473
data 1471
ef@@ 1470
se, 1469
enti@@ 1466
cu@@ 1465
them, 1465
here. 1463
pres@@ 1454
ous@@ 1453
done 1453
mov@@ 1453
one. 1445
bac@@ 1444
ste@@ 1444
ast 1444
In@@ 1443
ved 1443
women 1443
tw@@ 1438
way. 1438
social 1438
without 1435
sy@@ 1433
system@@ 1433
every@@ 1433
bro@@ 1433
problem 1432
world, 1431
ics 1431
wee@@ 1428
point 1424
et. 1421
! 1418
te 1416
One 1416
light 1412
19@@ 1411
let 1409
tion@@ 1406
ps 1403
power 1402
ral 1401
five 1400
inst@@ 1398
ric@@ 1397
col@@ 1388
et, 1388
technology 1386
bor@@ 1384
I'll 1383
probably 1383
number 1382
makes 1381
now, 1374
coun@@ 1374
boo@@ 1372
build 1372
talking 1369
eng@@ 1366
ss 1364
ds, 1364
9@@ 1361
them@@ 1360
ore 1359
system 1358
told 1356
ght 1356
sion@@ 1353
small 1351
ce@@ 1344
ence. 1339
dat@@ 1338
jo@@ 1338
ask 1337
out, 1336
tiv@@ 1335
pt 1334
best 1333
We're 1330
n, 1329
n. 1329
one, 1326
thre@@ 1326
differ@@ 1324
mer@@ 1323
U@@ 1323
mus@@ 1322
pu@@ 1321
years, 1321
tal@@ 1320
environ@@ 1319
cas@@ 1318
form 1318
pretty 1317
cur@@ 1316
win@@ 1316
ers. 1313
zed 1307
man 1306
self 1305
such 1303
school@@ 1297
sk@@ 1291
nam@@ 1290
he's 1289
net@@ 1286
s? 1286
point@@ 1286
sure 1283
across 1282
together 1281
ence, 1279
day, 1279
out. 1278
For 1278
ai@@ 1274
As 1267
of@@ 1264
like, 1263
set 1259
m, 1258
don@@ 1257
there, 1255
you've 1253
af@@ 1252
low 1247
ris@@ 1246
read 1245
den@@ 1242
well 1242
person 1241
ca@@ 1240
having 1240
port@@ 1235
clo@@ 1229
i 1227
ement 1227
lead@@ 1227
grow@@ 1227
en. 1227
kill@@ 1226
thinking 1225
question 1225
hav@@ 1225
design 1224
ran@@ 1221
everything 1221
ue 1220
him@@ 1220
societ@@ 1219
people, 1218
aw@@ 1215
sub@@ 1214
mem@@ 1214
ago, 1211
stor@@ 1210
mach@@ 1210
are@@ 1208
comput@@ 1208
ose 1208
move 1208
ill@@ 1206
face 1206
Why 1206
saw 1204
ak 1201
anim@@ 1201
20 1199
She 1197
shar@@ 1196
half 1195
ave 1194
en't 1194
loc@@ 1193
Ma@@ 1192
sup@@ 1192
second 1191
all, 1188
show@@ 1184
an, 1181
8@@ 1179
writ@@ 1179
seen 1177
ner@@ 1175
acc@@ 1171
teach@@ 1171
ly. 1166
lat@@ 1164
kids 1164
ational 1162
away 1162
gg@@ 1161
living 1161
children 1160
de, 1157
head@@ 1157
not@@ 1156
cap@@ 1156
read@@ 1156
building 1155
um 1154
inc@@ 1153
ement@@ 1153
ets 1153
thing, 1152
pati@@ 1151
New 1148
you@@ 1148
under@@ 1148
global 1146
All 1145
almost 1145
eg@@ 1144
e: 1143
play 1143
od@@ 1142
know@@ 1141
ty@@ 1141
great@@ 1138
wal@@ 1137
duc@@ 1136
spec@@ 1135
dro@@ 1135
50 1133
asked 1133
list@@ 1129
ition 1128
life. 1125
m. 1124
sit@@ 1123
por@@ 1120
learn 1120
st, 1120
ss@@ 1119
young 1119
let's 1118
Ri@@ 1117
ins 1113
sm@@ 1112
left 1112
information 1112
ors 1112
ru@@ 1111
up, 1111
hard 1110
id 1107
looked 1105
20@@ 1104
bod@@ 1104
care 1103
ator@@ 1102
turn 1102
whether 1101
pot@@ 1100
single 1099
person@@ 1097
hy@@ 1097
sti@@ 1095
reg@@ 1094
fa@@ 1092
so, 1091
tur@@ 1090
thin@@ 1087
dist@@ 1083
sense 1081
proc@@ 1080
fun@@ 1079
or, 1078
They're 1078
fic@@ 1077
direc@@ 1077
keep 1077
'll 1077
goes 1077
enough 1076
side 1075
both 1075
far@@ 1071
h, 1070
stand@@ 1070
os@@ 1068
tim@@ 1068
up. 1068
ill 1065
fact 1063
un 1062
today 1062
interesting 1062
looks 1062
ack 1061
energy 1060
ents 1060
larg@@ 1059
within 1059
comp@@ 1057
hom@@ 1056
United 1056
[@@ 1054
ones 1054
high 1053
do. 1052
my@@ 1052
ically 1052
tro@@ 1051
minut@@ 1051
bring 1049
tions 1048
ext@@ 1047
200@@ 1047
rat@@ 1045
wo@@ 1045
while 1044
ga@@ 1043
people. 1043
oper@@ 1043
real@@ 1041
ness 1041
mas@@ 1040
materi@@ 1040
ship 1040
dent 1039
ick@@ 1038
mean@@ 1038
times 1037
age, 1035
ong 1034
mean, 1034
ann@@ 1033
ish 1033
cro@@ 1032
run@@ 1032
projec@@ 1031
ional 1030
ments 1029
effec@@ 1026
room@@ 1026
ard 1025
money 1025
ation@@ 1025
individu@@ 1024
ability 1023
spac@@ 1021
Go@@ 1020
problem@@ 1019
billion 1017
gam@@ 1016
already 1016
under 1016
sel@@ 1015
science 1014
tion. 1014
top 1014
ati@@ 1011
school 1010
cam@@ 1009
ack@@ 1008
ways 1007
experi@@ 1007
sing 1007
fu@@ 1006
leg@@ 1006
happened 1003
de. 1001
struc@@ 997
men 997
gro@@ 996
example, 995
ic. 994
reason 993
Li@@ 992
technolog@@ 991
5 990
ei@@ 990
sign@@ 989
respon@@ 989
public 987
inside 986
commun@@ 985
ms 984
ves 984
ser@@ 983
far 983
dra@@ 982
someone 980
reas@@ 978
ick 977
our@@ 977
ght, 977
dru@@ 977
gets 976
sta@@ 974
often 974
seri@@ 973
can@@ 973
anything 971
ent. 970
bad 969
until 969
Mar@@ 968
once 968
food 968
wasn't 968
rem@@ 967
dri@@ 967
au@@ 966
sec@@ 966
put@@ 966
hol@@ 966
ment, 964
ds. 964
y's 962
years. 961
this@@ 959
objec@@ 959
heard 958
des 955
ory 952
simple 951
couple 949
... 947
cat@@ 947
led 947
bar@@ 945
room 944
though 944
val@@ 939
Al@@ 938
] 938
ght. 938
and, 937
cle@@ 936
taking 936
hear@@ 935
vic@@ 934
again, 934
rag@@ 932
mark@@ 932
work. 931
oce@@ 928
sho@@ 928
order 928
ment. 927
things. 925
g, 925
ure 924
ic, 924
want@@ 924
well, 923
space 923
atu@@ 922
country 919
became 919
fic 918
six 917
fam@@ 917
nes@@ 914
ort@@ 914
view@@ 913
— 909
tou@@ 908
ys 907
sum@@ 907
isn't 905
bir@@ 905
bigg@@ 904
rec@@ 903
ys, 902
ut 902
new@@ 901
meas@@ 899
book 898
built 897
allow@@ 895
home 894
much. 893
happens 893
basically 892
"I 890
30 889
continu@@ 889
mean 889
dollars 889
your@@ 889
age. 888
od. 888
possible 888
test@@ 887
possi@@ 887
moment@@ 887
countries 887
econom@@ 885
evol@@ 885
vol@@ 883
behavi@@ 883
nothing 881
open 881
graph@@ 880
excit@@ 880
decided 880
piece 879
turns 879
ber 879
opportun@@ 878
completely 878
health 878
tion, 878
ess. 877
pp@@ 877
future 877
ust@@ 876
vent@@ 876
computer 876
Let's 876
ering 876
fiel@@ 876
ies 875
tt@@ 874
educ@@ 873
ep 873
ously 873
imp@@ 873
now. 870
cra@@ 870
pictu@@ 870
against 870
all. 869
star@@ 868
le, 868
knew 868
learned 867
think, 866
bly 866
s: 866
ol 865
must 865
sli@@ 864
countr@@ 864
ace 863
innov@@ 863
pen@@ 862
imagine 861
depen@@ 861
exactly 861
cri@@ 860
ute 859
protec@@ 859
ff@@ 854
open@@ 854
spi@@ 853
front 852
Mo@@ 851
an. 850
ath@@ 850
kinds 850
p. 850
micro@@ 848
centur@@ 848
aff@@ 847
able. 847
ath 847
share 846
exist@@ 846
e." 845
long@@ 844
sci@@ 843
bri@@ 843
den 843
shap@@ 842
resul@@ 841
fil@@ 840
qui@@ 839
fri@@ 839
right? 839
discover@@ 839
see, 838
jour@@ 838
play@@ 837
hope 837
sed 836
compl@@ 835
since 835
sor@@ 834
ank 833
family 833
remember 833
cell@@ 831
organiz@@ 831
pat@@ 830
g. 830
ju@@ 830
Ar@@ 830
ants 830
or. 828
experience 827
selv@@ 826
hear 826
life, 825
eri@@ 823
important@@ 823
relation@@ 823
number@@ 821
ined 820
olog@@ 819
Indi@@ 819
ent, 819
couldn't 817
plo@@ 816
job@@ 816
ely, 815
engine@@ 813
bilit@@ 813
row@@ 813
ani@@ 812
ward 812
land 812
y-@@ 811
tor 810
ativ@@ 809
art 809
ve, 808
answer 808
ghts 807
entire 807
100 806
head 806
ble. 806
ordin@@ 805
pur@@ 805
tru@@ 805
rather 805
turned 804
men@@ 803
Is@@ 803
city 803
ter. 803
case 803
diseas@@ 802
citi@@ 802
viol@@ 801
work, 800
run 799
driv@@ 798
00 797
course 796
wit@@ 795
ture 794
aut@@ 794
stu@@ 794
ad, 794
recor@@ 794
electr@@ 794
law@@ 794
liter@@ 794
amazing 794
doc@@ 793
is. 793
American 793
here's 793
ter, 793
,@@ 792
you'll 792
girl@@ 791
p, 790
appro@@ 790
lots 790
word 790
air 789
picture 788
created 788
ve. 787
collec@@ 787
are, 786
ig@@ 786
thousands 786
as, 786
secon@@ 785
do, 785
squ@@ 784
govern@@ 784
gave 784
figure 784
vari@@ 783
inclu@@ 783
ash@@ 782
surpri@@ 782
son 782
see@@ 782
ow 782
pe 781
00@@ 781
huge 781
hor@@ 781
dar@@ 780
ft 779
ful@@ 779
business 779
mess@@ 779
bet@@ 778
OK@@ 778
ess, 778
chi@@ 777
od, 777
group 777
matter 777
hop@@ 777
based 776
study 776
stuff 775
lives 774
ped 774
fer@@ 773
moment 772
Con@@ 771
control 771
fre@@ 770
"O@@ 770
somebody 770
issu@@ 770
id@@ 769
shows 769
stop 769
elec@@ 769
lif@@ 768
fir@@ 768
early 767
robo@@ 767
ts, 767
cultu@@ 765
kin@@ 765
invest@@ 762
then, 762
dent@@ 761
day. 760
arly 760
positi@@ 759
start@@ 759
anti@@ 758
ts. 758
ch, 757
interest@@ 757
takes 757
ered 756
communic@@ 756
back@@ 756
sometimes 755
uni@@ 754
ir 754
line 754
befor@@ 754
ft@@ 753
model@@ 753
We've 753
self-@@ 753
chem@@ 752
program@@ 751
At 751
bas@@ 750
clas@@ 750
ice, 750
quest@@ 749
percent@@ 749
lling 749
ences 749
sive 748
posed 747
works 747
ched 747
ner 746
says, 746
beautiful 746
rit@@ 745
ven@@ 745
today, 745
ching 744
oun@@ 744
scientist@@ 744
che@@ 743
You@@ 742
bur@@ 742
exampl@@ 742
car 741
taken 741
ks, 741
happ@@ 740
perf@@ 739
fully 739
natural 738
di 737
mental 735
Oka@@ 735
ah@@ 734
forc@@ 734
inform@@ 734
med@@ 734
process 731
le. 729
als, 729
ese 728
ass@@ 728
mal@@ 728
gs 728
get@@ 727
deci@@ 727
sh 727
days 727
adv@@ 726
problems 726
large 726
happen 726
state 724
care@@ 724
pressi@@ 723
guy 723
fail@@ 723
year, 722
friend@@ 721
develop@@ 721
maj@@ 721
tool@@ 720
fast@@ 719
aver@@ 718
cr@@ 718
ideas 718
futu@@ 718
2 717
inf@@ 717
well. 717
und. 717
children@@ 717
cy@@ 717
4 716
ice. 716
cou@@ 716
scre@@ 716
psy@@ 716
argu@@ 715
build@@ 714
ate, 713
worked 713
ron@@ 712
valu@@ 711
thou@@ 711
las@@ 710
les@@ 710
least 710
ine, 709
known 709
what@@ 709
research 709
ell 708
invol@@ 708
government 708
defin@@ 707
video 707
particular 707
ks. 706
ices 705
everybody 705
self, 704
ual 704
famili@@ 704
ever@@ 703
stories 702
level@@ 701
itu@@ 700
trav@@ 700
lu@@ 699
Gre@@ 699
name 699
knowled@@ 699
ys. 699
♪ 699
pul@@ 698
Then 698
curr@@ 698
given 698
ply 698
app@@ 697
economic 697
months 697
self. 697
leave 697
stra@@ 696
during 696
quick@@ 696
audi@@ 694
obvi@@ 694
project 694
else 694
Re@@ 693
dic@@ 693
basi@@ 693
fe 693
solut@@ 693
example 691
says 690
Lo@@ 689
loo@@ 689
gh, 689
pract@@ 689
answ@@ 689
inspi@@ 689
along 689
ations, 688
ending 688
Here's 688
eas@@ 687
ential 687
question@@ 687
polit@@ 686
are. 686
o-@@ 686
instead 686
mind 686
ologi@@ 685
moving 685
sequ@@ 684
fro@@ 684
ect@@ 683
wom@@ 683
today. 683
shed 683
places 683
ine. 682
atic 682
community 681
predic@@ 681
und, 681
sist@@ 680
certain 680
challeng@@ 680
popul@@ 680
ance, 678
missi@@ 677
stop@@ 677
ily 675
histor@@ 675
third 675
behind 675
exper@@ 675
Ear@@ 674
ling 674
gl@@ 673
Be@@ 673
students 673
provi@@ 673
key 672
cannot 670
anci@@ 669
Di@@ 669
ally. 669
scienti@@ 668
Le@@ 668
So@@ 668
org@@ 667
3 667
thing@@ 667
began 666
seeing 666
studi@@ 665
heart 664
ener@@ 663
ters 663
tell@@ 662
biolog@@ 661
hon@@ 661
structu@@ 661
Ye@@ 661
expl@@ 661
pos@@ 660
Some 659
Is 659
fish@@ 658
we'll 658
call@@ 658
health@@ 658
du@@ 657
things, 657
bloo@@ 657
ations. 657
s." 656
it? 656
aro@@ 656
able, 655
with@@ 655
"The 655
as. 654
ago 653
ben@@ 652
situ@@ 652
feel@@ 652
ah, 651
local 651
king, 651
follow@@ 650
simply 649
saying 649
conce@@ 647
experiment@@ 647
physic@@ 647
tot@@ 646
d-@@ 645
full 644
cells 644
la 643
norm@@ 643
spent 643
ate. 642
To 642
model 642
hand 642
mu@@ 641
itut@@ 641
rest@@ 641
close 641
arti@@ 640
tran@@ 640
People 640
To@@ 640
everyone 640
und 640
ention 640
TED@@ 639
sav@@ 639
right, 639
Well 639
view 637
democ@@ 637
powerful 637
You're 637
st. 636
felt 636
amount 636
child 636
func@@ 635
We@@ 635
believ@@ 635
peopl@@ 635
inv@@ 634
tin@@ 634
ban@@ 634
ll 634
ina 633
needed 633
ith 632
tech@@ 632
woman 631
emot@@ 631
pas@@ 630
happening 630
descri@@ 630
spend 629
Or 629
bal@@ 628
clear@@ 628
ale 627
pass@@ 627
species 627
very, 627
realized 627
equ@@ 626
0, 626
rest 626
rul@@ 626
increas@@ 626
ens 625
tried 625
ently 625
Afric@@ 625
anal@@ 623
sex@@ 623
Au@@ 623
roc@@ 622
ping 622
was, 622
tec@@ 621
oni@@ 621
thought, 621
myself 621
prof@@ 620
vit@@ 620
political 620
stuff@@ 620
they@@ 620
lab@@ 620
az@@ 618
y: 618
crit@@ 617
sound 616
later, 615
tors 615
als. 615
Just 614
ax@@ 614
wonder@@ 613
perhaps 613
gh 613
job 613
terms 612
research@@ 612
super@@ 611
15 611
beg@@ 611
ger@@ 610
ere, 609
year-@@ 609
unds 608
've 608
again 608
needs 608
Z@@ 608
He@@ 608
fur@@ 608
other. 608
house 607
ther, 607
medic@@ 606
seven 606
wards 606
tic 606
cost@@ 605
Ro@@ 604
Our 604
learning 604
6 602
ange 602
dy@@ 602
black 602
molec@@ 602
busin@@ 601
history 601
dom 601
music 601
vill@@ 600
Here 600
langu@@ 599
hours 598
visi@@ 597
at, 597
aliz@@ 597
patter@@ 597
ka@@ 597
ov@@ 596
Pro@@ 596
visu@@ 596
ected 596
world@@ 596
ye@@ 596
ter 595
incredi@@ 594
sugg@@ 594
words 594
sle@@ 594
cli@@ 593
vide@@ 593
hu@@ 593
interested 593
coll@@ 592
moder@@ 592
Sh@@ 592
level 592
7 591
technologi@@ 591
yet 591
’@@ 590
ester@@ 589
botto@@ 589
chan@@ 588
S 587
pow@@ 587
sitting 586
flo@@ 586
ad. 586
ren@@ 585
invent@@ 585
Internet 585
changed 585
mother 585
manag@@ 584
da 583
cit@@ 583
10@@ 583
true 583
outside 583
walk 583
stron@@ 582
ust 582
plic@@ 581
ort 581
CA: 580
guys 580
again. 580
ush@@ 580
gar@@ 579
din@@ 578
middle 578
pay 578
preci@@ 578
parts 578
colo@@ 577
ram@@ 577
U.S. 577
brought 577
fli@@ 577
actually, 576
year. 576
past 576
stat@@ 575
Africa 574
grow 574
Not 574
right. 574
buy 573
brea@@ 573
pped 573
use, 572
cover@@ 572
ved@@ 571
Americ@@ 571
phone 571
common 571
was@@ 570
countri@@ 570
agre@@ 570
bab@@ 570
lear@@ 570
ming 569
appear@@ 569
ver, 568
ages 568
mone@@ 568
telling 567
ns 567
difficult 567
condit@@ 567
cell 567
auth@@ 567
fish 566
sem@@ 565
stri@@ 565
tow@@ 565
friends 565
lik@@ 564
sue 563
climate 563
lost 563
On 563
ught 562
wro@@ 562
wouldn't 562
grand@@ 562
capit@@ 561
simi@@ 561
wonderful 561
What's 561
intern@@ 561
animals 561
team 559
univer@@ 558
rin@@ 558
say@@ 558
row 558
Do 558
gives 558
certa@@ 558
Co@@ 557
sever@@ 557
cost 556
ot 556
pho@@ 556
interac@@ 556
tar@@ 555
wrong 555
plant@@ 555
sts 555
act@@ 555
language 555
throu@@ 554
giving 554
cer@@ 553
thes@@ 553
cancer 553
D 553
40 552
No@@ 552
wron@@ 552
es? 551
Can 551
four@@ 551
consci@@ 551
photograph@@ 551
u 550
Ne@@ 550
planet 550
personal 549
dou@@ 548
longer 548
treat@@ 548
ous, 548
om 547
at. 547
architec@@ 547
met 547
happy 547
ago. 547
ond 546
they've 545
growing 545
hundreds 545
suff@@ 545
mak@@ 544
priv@@ 544
uses 544
hold 544
particul@@ 543
starting 543
seems 543
ance. 542
world's 542
problem. 542
know. 542
game 542
Su@@ 541
cop@@ 541
bill@@ 541
selves 541
write 541
rece@@ 541
ere 540
tail@@ 540
power@@ 540
He's 539
ions, 539
recogni@@ 539
ourselves 539
sun@@ 539
eight 538
questions 538
fundament@@ 538
company 538
hospit@@ 538
che 537
movi@@ 537
cover 537
neighbor@@ 537
ous. 537
size 537
multi@@ 536
medi@@ 536
ining 536
structure 536
ular 536
solve 535
resourc@@ 535
responsi@@ 535
access 535
intell@@ 534
achi@@ 534
carb@@ 533
ature 533
test 533
deal 533
ty 533
night 533
jec@@ 532
Fran@@ 532
lim@@ 531
dollar@@ 531
main 531
espe@@ 530
quality 530
abilit@@ 530
oul@@ 529
Engli@@ 529
amp@@ 528
together. 528
won't 528
realize 528
y." 528
Earth 528
ich@@ 527
Euro@@ 527
cle 526
"Well, 526
ines 526
together, 526
easy 525
tradit@@ 525
creating 524
understanding 524
No, 524
Every@@ 524
No 524
news 523
allow 523
decision@@ 522
step 522
digit@@ 521
physical 521
really, 521
difference 521
post@@ 520
ption 520
Stat@@ 520
itive 520
dang@@ 520
easi@@ 519
trac@@ 519
ion 519
story. 519
well@@ 519
On@@ 518
ail@@ 518
small@@ 518
Let 518
ini@@ 517
caus@@ 517
Un@@ 517
companies 517
millions 517
resi@@ 516
sustain@@ 516
free 516
father 516
qual@@ 515
radi@@ 515
avail@@ 515
developed 515
path@@ 515
more. 515
ake 515
ere@@ 514
degre@@ 514
industr@@ 514
war 514
group@@ 514
be, 513
ving 513
' 512
web@@ 512
source 512
activit@@ 512
present 512
Chin@@ 512
liz@@ 511
ia 510
recent@@ 510
convers@@ 510
int 510
nature 510
insi@@ 510
universe 510
fol@@ 509
system. 509
ight 509
inly 509
suppor@@ 509
Se@@ 508
present@@ 508
ox@@ 508
who's 508
complex 508
sing@@ 507
clu@@ 507
poll@@ 507
simpl@@ 507
't 507
bed 507
beginning 507
piec@@ 507
50@@ 506
cent 506
represent@@ 505
likely 504
talked 503
that? 503
ned 503
whatever 503
light@@ 503
extra@@ 502
absolutely 502
ble, 502
En@@ 501
population 501
incredible 501
subjec@@ 500
ions. 500
flow@@ 500
area 499
ut, 499
feeling 499
evid@@ 498
type 498
dg@@ 498
ful, 498
’s 497
she@@ 497
pan@@ 496
hou@@ 496
compas@@ 496
education 496
sil@@ 495
developing 495
paint@@ 495
poor 494
s' 494
bey@@ 494
hun@@ 494
parents 494
Com@@ 493
origin@@ 493
actu@@ 493
pose 492
man, 492
mill@@ 491
media 491
national 491
tele@@ 490
ay 490
themat@@ 490
Bi@@ 489
urb@@ 489
ch. 489
free@@ 489
i, 488
r. 488
market 488
contro@@ 487
ground 486
cancer@@ 486
necess@@ 484
ribut@@ 483
mb@@ 482
York 482
gn@@ 481
spo@@ 480
concer@@ 480
ok 480
ics, 480
compet@@ 480
ver 479
ders 479
cus 478
fem@@ 478
produce 477
zz@@ 475
sud@@ 475
favor@@ 475
success@@ 475
deca@@ 474
dest@@ 474
tem@@ 473
199@@ 473
effici@@ 473
World 472
arch@@ 471
lau@@ 471
rai@@ 471
viv@@ 470
1 470
Par@@ 470
hour@@ 470
progre@@ 469
n't 469
gone 469
terri@@ 469
orth 468
cos@@ 466
posit@@ 466
V 465
ney 465
amb@@ 464
18@@ 464
comm@@ 463
ush 463
genet@@ 462
develo@@ 462
begin@@ 462
South 462
Chri@@ 461
plor@@ 461
Wi@@ 460
chall@@ 460
ma 459
non-@@ 459
ign 458
dev@@ 457
underst@@ 457
bio@@ 456
9 456
foot@@ 456
succ@@ 455
8 452
Amer@@ 451
milit@@ 451
enou@@ 451
De@@ 448
Bo@@ 448
cul@@ 447
sens@@ 447
bit@@ 447
icip@@ 446
G: 446
ould 446
publi@@ 445
sco@@ 444
bun@@ 444
scale 444
ster 444
bloc@@ 444
foc@@ 444
Man@@ 442
equi@@ 442
go. 442
og@@ 441
diag@@ 441
nor@@ 440
ete 440
to, 440
asi@@ 439
fter 439
organi@@ 439
month@@ 438
neuro@@ 438
ame 437
rou@@ 437
que 436
Ac@@ 435
ade 435
sport@@ 435
thous@@ 435
sal@@ 434
natu@@ 433
intro@@ 432
class@@ 432
pag@@ 431
civi@@ 431
duce 431
dam@@ 431
cir@@ 430
Ge@@ 430
U.@@ 430
ybe 430
dd@@ 429
ure@@ 426
lun@@ 425
adul@@ 425
inten@@ 424
sl@@ 424
eve 423
consum@@ 423
Don@@ 423
gradu@@ 422
market@@ 421
cour@@ 421
signific@@ 420
let@@ 420
dimension@@ 419
ven 419
virtu@@ 417
ple 417
"D@@ 416
ow, 415
60 415
mic@@ 415
gal@@ 415
sort@@ 414
hap@@ 414
compar@@ 413
Ho@@ 413
DNA 412
colle@@ 412
illu@@ 411
Car@@ 410
complic@@ 410
hal@@ 410
figu@@ 409
ther. 409
ere. 408
univers@@ 408
essi@@ 407
Brit@@ 407
ident@@ 407
prove 407
dise@@ 407
ste 406
entu@@ 406
colleg@@ 404
culture 404
discus@@ 404
Internet@@ 403
plast@@ 403
des@@ 402
peri@@ 402
Mus@@ 402
agu@@ 401
ey 400
12 400
possibilit@@ 400
India 400
regi@@ 398
ove 398
Ex@@ 398
ign@@ 398
201@@ 398
America 397
ho 396
"S@@ 396
now@@ 396
cal@@ 395
nar@@ 395
mis@@ 395
luc@@ 395
clin@@ 394
religi@@ 394
ich 393
cause 392
M: 392
collabor@@ 391
ssi@@ 391
Fi@@ 390
povert@@ 390
glob@@ 389
invit@@ 389
alc@@ 388
solu@@ 388
aci@@ 387
sent@@ 387
ascin@@ 387
25 386
scri@@ 386
fortunat@@ 386
separ@@ 386
amaz@@ 386
limit@@ 385
omet@@ 385
right@@ 384
gent@@ 383
pensi@@ 382
incre@@ 382
nucle@@ 381
vir@@ 380
ably 380
Nor@@ 379
full@@ 379
ster@@ 379
ado@@ 378
whe@@ 378
os 378
ero@@ 377
influ@@ 377
lar@@ 376
circu@@ 376
Har@@ 375
HI@@ 375
forest@@ 374
Per@@ 373
It@@ 373
that@@ 373
alt@@ 372
princi@@ 371
stati@@ 371
Si@@ 370
alist@@ 370
ade@@ 369
x, 369
sic@@ 368
Bra@@ 367
el, 367
dy 366
Or@@ 366
sett@@ 365
dit@@ 365
deb@@ 364
remem@@ 364
Ger@@ 364
gri@@ 364
500 363
perce@@ 363
online 362
industri@@ 360
eff@@ 360
neur@@ 360
student@@ 359
utt@@ 358
beli@@ 358
flu@@ 358
vision@@ 357
serve 357
temper@@ 356
Po@@ 356
gir@@ 356
enom@@ 356
Jo@@ 355
to. 354
performan@@ 354
identi@@ 354
child@@ 354
organis@@ 353
heal@@ 353
80 352
z 352
Bu@@ 352
200 352
!" 351
non@@ 351
ain 351
blo@@ 350
Ira@@ 350
alis@@ 349
docu@@ 349
fine 348
robot 348
For@@ 348
liber@@ 347
Ph@@ 347
scar@@ 347
ay@@ 346
disa@@ 346
cru@@ 346
ce, 346
profession@@ 344
soci@@ 344
bec@@ 344
Mi@@ 344
fru@@ 343
Do@@ 343
ome 343
beauti@@ 342
ken 341
controll@@ 340
emerg@@ 340
need@@ 340
foll@@ 340
radic@@ 339
consider@@ 338
vacc@@ 338
tan@@ 338
manu@@ 338
determin@@ 338
go, 337
seem@@ 337
enor@@ 336
prote@@ 336
terrori@@ 336
no, 335
sch@@ 335
mist@@ 334
mani@@ 334
bile 334
fort@@ 334
a-@@ 333
passion@@ 332
die 332
buil@@ 332
lob@@ 332
ett@@ 331
A, 331
ind 331
asp@@ 330
Africa, 330
film 330
strugg@@ 330
198@@ 329
partic@@ 328
rap@@ 328
comb@@ 328
sourc@@ 326
desi@@ 324
consi@@ 324
Yor@@ 324
stem 324
improv@@ 323
imes 321
arch 321
ate@@ 320
element@@ 320
mp@@ 320
ready 320
lan@@ 319
pet@@ 319
ild@@ 319
idea. 319
5, 318
X@@ 318
youn@@ 318
Google 316
celebr@@ 316
/@@ 316
riv@@ 315
software 315
chil@@ 315
Chris 314
1, 314
prov@@ 313
"A@@ 313
economi@@ 311
acci@@ 311
loso@@ 310
i. 309
ica, 308
do? 308
ine@@ 308
ton 308
ole 307
confer@@ 307
evolu@@ 307
proto@@ 306
ost@@ 306
bus@@ 306
atmo@@ 305
pren@@ 305
immediat@@ 304
rib@@ 304
gol@@ 304
They@@ 303
Ver@@ 302
capac@@ 302
Vi@@ 302
fini@@ 302
alth 302
motiv@@ 302
Africa. 302
stori@@ 301
fantast@@ 301
nut@@ 301
appe@@ 301
volu@@ 300
integr@@ 300
mam@@ 300
kes 300
artist@@ 299
T 299
curi@@ 299
lav@@ 298
itt@@ 298
lam@@ 298
simul@@ 298
mini@@ 297
inste@@ 297
clim@@ 296
Ju@@ 296
stru@@ 295
esi@@ 295
associ@@ 294
ce. 294
18 294
fram@@ 294
2, 294
divi@@ 294
creati@@ 292
ale. 291
Cent@@ 291
tra 290
dec@@ 290
babi@@ 289
Can@@ 289
infra@@ 289
David 288
ee 288
100@@ 287
conclu@@ 287
Secon@@ 287
Mc@@ 286
Mon@@ 285
omi@@ 285
camera 284
ica. 283
scen@@ 283
grav@@ 282
C 282
sto@@ 282
combin@@ 280
contr@@ 280
del@@ 280
osa@@ 280
è 279
crimin@@ 279
ire 278
Afghanist@@ 278
Europ@@ 278
B: 278
Californi@@ 277
ina, 277
abit@@ 276
teri@@ 275
dig@@ 275
fici@@ 275
ID@@ 275
traff@@ 275
conserv@@ 274
contin@@ 273
ulti@@ 273
diver@@ 273
Gi@@ 273
attr@@ 273
mul@@ 272
idea, 271
year@@ 271
scal@@ 270
Ber@@ 270
ind@@ 270
ur 270
applic@@ 269
domin@@ 269
alg@@ 269
embr@@ 269
ton@@ 268
bb@@ 268
remo@@ 268
doll@@ 268
Ken@@ 267
reli@@ 267
blu@@ 267
won@@ 267
lit@@ 266
Char@@ 266
anis@@ 266
con 265
ero 265
e; 265
issi@@ 264
ele@@ 264
neg@@ 263
altern@@ 263
mort@@ 263
prepar@@ 263
Face@@ 263
eter@@ 262
gn 262
fra@@ 261
tern@@ 261
ouldn't 260
stic@@ 259
Inter@@ 259
a: 258
11 258
tivit@@ 258
70 257
fron@@ 257
reali@@ 257
visit@@ 256
John 256
$@@ 256
tit@@ 255
letter@@ 254
emer@@ 254
conv@@ 254
inci@@ 253
log@@ 253
thir@@ 253
mol@@ 252
tel@@ 252
Univers@@ 251
compon@@ 251
hum@@ 251
Qu@@ 250
ale, 249
90 249
satell@@ 249
sul@@ 248
Col@@ 248
vul@@ 248
A. 247
mac@@ 247
erci@@ 247
presi@@ 247
pal@@ 246
commerci@@ 246
understand@@ 246
batt@@ 246
CO@@ 245
era 245
resist@@ 245
attac@@ 245
"M@@ 245
compani@@ 244
anz@@ 243
corr@@ 242
tol@@ 242
ld 242
auti@@ 242
intu@@ 241
Wor@@ 241
sult@@ 241
consu@@ 240
brill@@ 239
ands 239
o: 238
0. 238
ana 237
mut@@ 236
gas 235
prob@@ 235
lea@@ 234
epide@@ 232
batter@@ 231
una 230
so. 230
Gu@@ 230
voc@@ 228
pac@@ 228
P 227
San 227
ene 226
cogn@@ 226
Ni@@ 225
anno@@ 225
pit@@ 225
ampl@@ 225
due 224
igh@@ 224
perio@@ 222
difficul@@ 222
ile 222
ica 220
natur@@ 220
pun@@ 220
e?" 220
ace@@ 218
who@@ 218
import@@ 217
sin@@ 217
ignor@@ 217
date 216
divers@@ 216
sac@@ 216
fortun@@ 216
guar@@ 214
ane 214
indic@@ 214
succe@@ 212
male 212
propri@@ 212
frequ@@ 212
err@@ 210
infor@@ 210
carri@@ 210
O 210
DN@@ 210
cav@@ 210
nex@@ 210
vis@@ 209
arriv@@ 209
stem@@ 209
abi@@ 208
io 208
uti@@ 207
tas@@ 207
ina. 206
Joh@@ 206
vel@@ 205
labor@@ 204
outh 203
ha 202
edi@@ 202
intellig@@ 202
parti@@ 202
Pri@@ 202
fossi@@ 201
conf@@ 200
facil@@ 200
sper@@ 200
dol@@ 199
ra 198
aper@@ 197
E 196
tras@@ 196
sim@@ 196
At@@ 196
acqu@@ 195
q@@ 195
eli@@ 195
esso@@ 194
net 194
na 193
gram@@ 193
stim@@ 193
non 192
fr@@ 192
nec@@ 192
ai 191
pon@@ 191
ness@@ 191
Q@@ 190
phys@@ 190
gy 189
accor@@ 189
ans@@ 188
complet@@ 187
epi@@ 187
demo@@ 187
gel@@ 186
scu@@ 186
sai@@ 186
All@@ 185
concentr@@ 185
midd@@ 185
spon@@ 184
Cor@@ 184
fal@@ 183
arri@@ 183
Goog@@ 183
Pe@@ 182
ia, 182
quar@@ 182
elet@@ 182
sia 181
S. 181
gest@@ 179
libr@@ 179
ession@@ 179
relig@@ 179
strate@@ 179
stupi@@ 179
nel 178
vers@@ 178
gli@@ 177
litt@@ 176
gin@@ 175
photogra@@ 175
indi@@ 174
ond@@ 174
san@@ 174
virus 174
Pi@@ 173
kno@@ 173
etter 172
amoun@@ 172
hist@@ 172
ili@@ 172
ne 171
ato 170
isol@@ 170
amin@@ 170
fat@@ 169
Ben@@ 169
no. 168
Uni@@ 168
ont@@ 167
vive 165
rapid@@ 164
appar@@ 164
Lu@@ 163
nego@@ 163
que@@ 163
dir@@ 162
absolut@@ 162
lon@@ 162
ret@@ 162
prim@@ 161
Vo@@ 161
evit@@ 160
coul@@ 159
infin@@ 159
Come 158
base 158
nu@@ 158
disc@@ 157
quo@@ 157
somet@@ 157
a? 156
ord@@ 156
ea 156
icul@@ 156
pir@@ 155
nav@@ 155
B 155
scor@@ 154
auto@@ 154
rar@@ 154
sic 153
si 152
K 152
enn@@ 151
- 151
bell@@ 151
&@@ 151
osp@@ 151
ambi@@ 150
abb@@ 150
emo@@ 150
spar@@ 150
ell, 150
e" 149
convin@@ 148
vest@@ 148
]@@ 148
evi@@ 147
engin@@ 147
;@@ 145
te, 144
M 144
Al 142
phy@@ 141
ore, 139
ro 139
dedic@@ 139
ano 138
agg@@ 137
del 136
assist@@ 136
US@@ 136
ex 136
occu@@ 135
dia 134
ola 133
A: 133
softw@@ 133
api@@ 133
nov@@ 132
fav@@ 132
mapp@@ 132
distribu@@ 131
aria 130
rare 129
q 129
a." 128
Sar@@ 127
bene@@ 127
camp@@ 126
red@@ 126
beh@@ 126
again@@ 125
copi@@ 125
fest@@ 124
veni@@ 124
haps 123
script@@ 123
atter@@ 122
?@@ 122
ico 121
cin@@ 121
via 121
é@@ 121
ore. 120
da, 120
lett@@ 119
bel 119
leader 119
Pen@@ 118
R 118
uman@@ 117
o? 117
self@@ 117
Cre@@ 116
mes@@ 116
enz@@ 115
lor@@ 115
ta 114
zi@@ 114
recogn@@ 114
pens@@ 113
vist@@ 113
gover@@ 113
worl@@ 113
:@@ 113
eria 112
era, 112
abor@@ 111
ana, 110
ample 110
preced@@ 109
fel@@ 109
schi@@ 109
rapi@@ 108
ita 108
prefer@@ 108
occup@@ 105
ci 103
della 103
ra, 103
cc@@ 103
mass@@ 103
rim@@ 103
ren 103
num@@ 102
La 101
ino 101
vor@@ 101
quant@@ 101
nee@@ 101
lo 100
ata 100
velo@@ 100
ena 100
ingu@@ 100
vere 100
opl@@ 100
Dav@@ 99
assi@@ 98
iti 98
entr@@ 97
Pu@@ 97
pure 96
ament@@ 96
sar@@ 95
does@@ 95
fare 94
diverse 94
sono 93
più 93
l'@@ 92
fut@@ 92
confron@@ 92
mo 91
X 91
v 91
G 90
N 89
uro@@ 88
diff@@ 88
dor@@ 88
pad@@ 88
L 88
“@@ 88
dal 87
ff 87
nolo@@ 87
archit@@ 86
sco 86
Pa@@ 85
nost@@ 85
Ter@@ 85
Chi@@ 85
” 85
uno 84
bli@@ 84
Im@@ 84
render@@ 83
zone 83
immedi@@ 83
li 82
ora 82
chim@@ 82
Ever@@ 82
sanit@@ 82
atric@@ 82
questo 81
mi 81
centr@@ 81
tent@@ 81
uff@@ 81
ette 81
anta 81
ati 80
acro@@ 80
te. 79
quad@@ 79
lla 78
vin@@ 78
razi@@ 78
ba 78
betwe@@ 78
tta 77
lingu@@ 77
0 77
va 76
ma, 76
sb@@ 76
F 76
mili@@ 75
tut@@ 75
piano 75
bo 75
til 75
nuc@@ 75
ali 74
Ci@@ 74
chie@@ 74
som@@ 74
cellul@@ 74
studio 73
ini 72
ri 72
Tran@@ 72
altr@@ 71
poss@@ 71
dut@@ 70
ra. 69
solo 69
gio@@ 69
behav@@ 68
membr@@ 67
hundre@@ 67
amer@@ 67
gran@@ 66
ari 65
olo@@ 65
termin@@ 65
toge@@ 65
fon@@ 64
ario 64
togra@@ 64
infer@@ 64
Afgh@@ 64
U 64
stain@@ 64
ito 63
mad@@ 63
atten@@ 63
ani 62
sta 61
erra 61
dur@@ 61
led@@ 61
fant@@ 60
ando 59
ura 59
se: 59
senti@@ 59
music@@ 59
ma. 59
envi@@ 59
quando 58
sa 58
sof@@ 58
Il 57
princip@@ 57
Ed 57
ico, 57
ico. 57
ello 57
..@@ 57
Y 57
d'@@ 56
ppi@@ 56
dice 56
!@@ 56
ou 56
fine, 55
co, 55
Cer@@ 55
abbiamo 54
co 54
bast@@ 54
ca 54
cose 54
inate 54
o." 54
Vol@@ 53
Mol@@ 53
lavor@@ 52
dare 52
ro, 52
azz@@ 52
H 52
+ 52
í@@ 52
etti 51
aria. 51
guid@@ 51
da. 50
terr@@ 50
ere's 50
tty 50
questa 49
tti@@ 49
eco@@ 49
agn@@ 49
pron@@ 49
sfi@@ 49
Pot@@ 49
E, 48
poli@@ 48
ause 48
á@@ 48
ono 47
nat@@ 47
é 47
essere 46
guer@@ 46
sour@@ 46
neigh@@ 46
dimen@@ 45
iment@@ 45
ribu@@ 45
dio 45
entist@@ 45
% 44
lev@@ 44
elle 44
atori@@ 44
za 44
exact@@ 44
/ 44
dell'@@ 43
orn@@ 43
asc@@ 43
petro@@ 43
fund@@ 43
gli 42
#@@ 42
compi@@ 42
ece 42
energi@@ 42
amente 41
Ma 41
vi 41
alla 40
Av@@ 40
conc@@ 40
ori 40
merc@@ 40
Q 40
—@@ 40
ava 39
Guar@@ 39
vec@@ 39
...@@ 39
bbi@@ 39
ampi@@ 39
TE@@ 39
endo 38
anche 38
chi 38
li. 38
zza 38
fatt@@ 38
Er@@ 38
laboratori@@ 37
osc@@ 37
alk 37
delle 36
zione 36
questi 36
Non 36
pes@@ 36
ro. 36
ti 36
scel@@ 36
stamp@@ 36
ã@@ 36
dei 35
fa 35
bile. 35
ano, 35
pover@@ 35
tutti 35
azione 35
ga 35
superi@@ 35
stare 35
ona 35
 @@ 35
contest@@ 34
ano. 34
guard@@ 34
Sub@@ 34
[ 34
cui 33
lo. 33
aver 33
lo, 33
vo 33
ante 32
ò 32
cosa 32
enza 32
rete 32
amo 32
mia 32
pian@@ 32
sat@@ 32
hanno 31
mondo 31
volt@@ 31
nella 31
di, 31
diment@@ 31
elo 31
Ric@@ 31
dove 30
E' 30
li, 30
loro 30
modo 30
@@@ 30
all'@@ 29
su 29
gia 29
tutto 29
legg@@ 29
atti@@ 29
esse 29
ali, 28
ità 28
Se 28
ogni 28
prog@@ 28
ogg@@ 28
posi@@ 28
etta 28
ete, 28
ç@@ 28
Questo 27
che, 27
ali. 27
ario. 27
dire 27
è@@ 27
gett@@ 27
cellu@@ 27
tto 27
) 27
blem@@ 27
diffic@@ 27
effic@@ 27
queste 26
perché 26
quello 26
ggi@@ 26
quel 26
popol@@ 26
Z 26
oft@@ 26
ó@@ 26
… 26
anni 25
enti 25
ente 25
co. 25
un'@@ 25
ede 25
Quest@@ 25
dn't 25
muc@@ 25
rought 25
ata. 24
Le 24
ri, 24
inte@@ 24
". 24
lei 24
tto@@ 24
Af@@ 24
ö@@ 24
eva 23
fu 23
molto 23
sap@@ 23
vu@@ 23
bile, 23
W 23
oria 23
segre@@ 23
ella 23
're 23
J 23
si, 22
mare 22
grande 22
nell@@ 22
noti@@ 22
capi@@ 22
circa 22
dov@@ 22
ario, 22
salv@@ 22
torn@@ 22
osci@@ 22
titles 22
_@@ 22
anno 21
parte 21
anza 21
aggi@@ 21
sto 21
nas@@ 21
dott@@ 21
acco 21
', 21
= 21
L'@@ 20
endo@@ 20
mai 20
nostro 20
asci@@ 20
così 20
oni 20
esa 20
mio 20
siamo 20
può 20
possiamo 20
persone 20
fare. 20
vita 20
stato 20
coli 20
po 20
ta. 20
lem 20
impe@@ 20
Si 19
etto 19
di. 19
ciò 19
fatto 19
etti@@ 19
anti 19
", 19
ata, 19
menti 19
ato, 19
zi 19
successi@@ 19
– 19
I'@@ 19
canc@@ 19
at's 19
degli 18
dai 18
quella 18
cresc@@ 18
c'è 18
Per 18
inizi@@ 18
po, 18
oi 18
esist@@ 18
col 18
signi@@ 18
+@@ 18
auto 18
elli 17
tempo 17
siano 17
sione 17
tutte 17
psi@@ 17
specie 17
enzi@@ 17
Let@@ 17
emat@@ 17
é, 17
hosp@@ 17
Tut@@ 16
tav@@ 16
qui 16
amento 16
dall'@@ 16
Questa 16
lavoro 16
pensate 16
matt@@ 16
qualche 16
mo, 16
segu@@ 16
oro 16
ries@@ 16
ino, 16
cun@@ 16
j 16
econ@@ 16
stiamo 15
cambi@@ 15
nell'@@ 15
tipo 15
mo. 15
ben 15
volta 15
azione. 15
poi 15
diamo 15
uro 15
cia 15
ti, 15
rur@@ 15
ati, 15
tu 15
indu@@ 15
milioni 14
ei 14
emo 14
cident@@ 14
sulla 14
altre 14
Da 14
suo 14
Quindi 14
ato. 14
ucci@@ 14
meno 14
immagin@@ 14
eri 14
fond@@ 14
alle 14
ora, 14
dalla 14
altro 14
almente 14
ando@@ 14
olo 14
zza. 14
Abbiamo 14
Cos@@ 14
rett@@ 14
ani, 14
mi, 14
ricer@@ 14
coup@@ 14
superfici@@ 14
ñ@@ 14
erano 13
ito, 13
sul 13
enza. 13
semplicemente 13
ri. 13
Sono 13
ente. 13
ancora 13
dere 13
arsi 13
grado 13
ante, 13
cominci@@ 13
uto 13
perch@@ 13
aspett@@ 13
salute 13
nei 13
oso 13
uri 13
osa 13
esi 13
commer@@ 13
azi@@ 13
essa 12
amente. 12
possono 12
stata 12
nostra 12
mont@@ 12
Ora, 12
prima 12
amente, 12
à 12
avere 12
Ora 12
nelle 12
Una 12
chiam@@ 12
vidu@@ 12
processo 12
anzi@@ 12
compr@@ 12
Dop@@ 12
pub@@ 12
ari, 12
sopr@@ 12
po. 11
vengono 11
si. 11
senza 11
ossi@@ 11
peggi@@ 11
sempre 11
parl@@ 11
quanto 11
po' 11
tratta 11
andare 11
foto 11
eggi@@ 11
parol@@ 11
proprio 11
ati. 11
.000 11
divent@@ 11
dati 11
azioni 11
esempio 11
fosse 11
zzare 11
possa 11
fa, 11
quelle 11
Ho 11
Sap@@ 11
evano 11
sua 11
stava 11
diversi 11
000 11
Ha 11
tram@@ 11
agli@@ 11
vie@@ 11
zza, 11
nem@@ 11
vicin@@ 11
arth 11
ü@@ 11
Ve@@ 11
quasi 10
ghiacci@@ 10
vedere 10
mente 10
zo 10
immagine 10
ito. 10
viene 10
esper@@ 10
zioni 10
funzion@@ 10
tare 10
nuovo 10
sso 10
zion@@ 10
sce@@ 10
progett@@ 10
creare 10
libro 10
abbastanza 10
evo 10
io, 10
immagini 10
esser@@ 10
ó 10
’ 10
‘@@ 10
problema 9
certo 9
sarà 9
anni. 9
ghi@@ 9
domanda 9
Un 9
nuovi 9
negli 9
molte 9
dire@@ 9
società 9
ando. 9
ici 9
Così 9
quali 9
pensare 9
spazi@@ 9
piac@@ 9
interessante 9
lui 9
tuo 9
qualcosa 9
preoccup@@ 9
lizz@@ 9
vista 9
persona 9
rei 9
ettiv@@ 9
stavo 9
enti, 9
rius@@ 9
alizz@@ 9
Quando 9
È 9
che. 9
ecc@@ 9
etti, 9
ù 9
chi, 9
unqu@@ 9
mostr@@ 8
fino 8
ì, 8
punto 8
già 8
livello 8
altra 8
avete 8
fuori 8
aggiun@@ 8
ani. 8
nuova 8
chio 8
veloc@@ 8
condi@@ 8
sotto 8
potete 8
dello 8
qualcuno 8
Ciò 8
voi 8
troppo 8
farlo 8
giu@@ 8
ando, 8
posso 8
possibilità 8
hai 8
Ecco 8
quale 8
amo. 8
paura 8
riusci@@ 8
tutta 8
ricor@@ 8
cose. 8
avo 8
sarebbe 8
mie 8
quindi 8
attraverso 8
avano 8
davvero 8
forse 8
eno 8
scoper@@ 8
doman@@ 8
abbi@@ 8
vivere 8
anto 8
e' 8
mondo, 8
otti@@ 8
i? 8
stro 8
colt@@ 8
(@@ 8
utto@@ 8
ä@@ 8
á 8
Di 8
avuto 7
ultimi 7
quantità 7
alcuni 7
mento 7
aument@@ 7
pianet@@ 7
cio 7
alcune 7
à. 7
rispetto 7
costruire 7
sui 7
parlare 7
tecnologia 7
almente, 7
nostri 7
insiem@@ 7
lavoro. 7
elettr@@ 7
Grazie. 7
realtà 7
esso 7
attiv@@ 7
amo, 7
poter 7
Vi 7
caso 7
mentre 7
uti 7
mett@@ 7
storia 7
particolare 7
l'inter@@ 7
migli@@ 7
unque 7
scrivere 7
assic@@ 7
gente 7
risposta 7
meglio 7
piuttosto 7
ù@@ 7
rifl@@ 7
strut@@ 7
trovare 7
mani 7
tiamo 7
ità. 7
Perché 7
ché 7
allo 7
giorno 7
piccolo 7
nessuno 7
altri 7
mi. 7
sost@@ 7
possibi@@ 7
à@@ 7
conten@@ 7
Cosa 7
noi 7
ori, 7
à, 7
età 7
ono, 7
ï@@ 7
–@@ 7
cerv@@ 7
tre 6
è, 6
Quello 6
interess@@ 6
stesso 6
volte 6
consegu@@ 6
verso 6
maggi@@ 6
azione, 6
bili 6
Questi 6
miliardi 6
visto 6
sulle 6
usa 6
pensiamo 6
riguar@@ 6
modi 6
qui. 6
ci, 6
dobbiamo 6
arvi 6
quelli 6
dentro 6
invece 6
tti 6
Quindi, 6
Penso 6
credo 6
parole 6
chied@@ 6
bambin@@ 6
scher@@ 6
Ci 6
dopo 6
facendo 6
portato 6
puoi 6
iamo 6
voglio 6
scrit@@ 6
ovvi@@ 6
ppor@@ 6
ì 6
risultato 6
qualc@@ 6
stessa 6
imo 6
sembr@@ 6
completamente 6
siete 6
nostre 6
grandi 6
qualsiasi 6
modell@@ 6
meravigli@@ 6
io. 6
cose, 6
colp@@ 6
Tutti 6
responsa@@ 6
Possiamo 6
indi, 6
anni, 6
durante 6
prendere 6
pezzo 6
erò 6
'è 6
atto 6
possibile 6
passare 6
esso. 6
sei 6
atti 6
iche 6
mezzo 6
obi@@ 6
numero 6
vera 6
rispon@@ 6
fis@@ 6
ante. 6
mondo. 6
Con 6
zio 6
pie@@ 6
ced@@ 6
ora. 6
ø@@ 6
asi 6
%@@ 5
sistema 5
detto 5
potrebbe 5
noi. 5
atore 5
stanno 5
chiar@@ 5
acqua 5
abile 5
fico 5
causa 5
insieme 5
uso 5
ari. 5
secondo 5
successo 5
pubblic@@ 5
Noi 5
evi 5
sentito 5
occhi@@ 5
ò, 5
soluzione 5
mettere 5
dono 5
Grazie 5
macchina 5
etro 5
costru@@ 5
primo 5
questo, 5
oltre 5
dovuto 5
"Non 5
evamo 5
posto 5
Lo 5
valore 5
ingegn@@ 5
facile 5
Voglio 5
fisic@@ 5
veder@@ 5
mano 5
semplice 5
esempi@@ 5
zione, 5
conto 5
usare 5
possano 5
risultati 5
esattamente 5
tratt@@ 5
gliere 5
effetti 5
chiamo 5
informazioni 5
vita. 5
emente 5
scritto 5
megli@@ 5
mori@@ 5
fatti 5
straordin@@ 5
glio 5
rà 5
quest'@@ 5
bene 5
probabi@@ 5
lavorare 5
cercando 5
ricerca 5
umano 5
lasci@@ 5
dett@@ 5
discor@@ 5
fici 5
armi 5
arriva 5
momento 5
cambiare 5
anza. 5
Era 5
ricon@@ 5
ento 5
durre 5
Siamo 5
miglior@@ 5
ezza 5
ori. 5
ghi 5
usando 5
prat@@ 5
messo 5
essi 5
enza, 5
veramente 5
tecnologi@@ 5
endo. 5
otto 5
tà 5
ades@@ 5
vuole 5
etto. 5
paio 5
ti. 5
â@@ 5
Possi@@ 5
ople 5
forman@@ 5
indi 5
@@ 5
í 5
  5
sioni 4
sotto@@ 4
prossi@@ 4
segn@@ 4
sangu@@ 4
poco 4
motivo 4
aveva 4
raggiun@@ 4
particol@@ 4
metri 4
persino 4
Gli 4
zione. 4
modo, 4
ricord@@ 4
qualcos@@ 4
gono 4
gran 4
macch@@ 4
questione 4
dipen@@ 4
Uno 4
sull'@@ 4
inizio 4
quell'@@ 4
significa 4
settiman@@ 4
spazio 4
portare 4
Dov@@ 4
ottenere 4
gno 4
iscono 4
tanto 4
idee 4
prender@@ 4
impar@@ 4
cominciato 4
rispost@@ 4
sentire 4
comun@@ 4
metter@@ 4
nuove 4
sero 4
aggi 4
usci@@ 4
oli 4
propria 4
realizz@@ 4
bero 4
devo 4
miei 4
azion@@ 4
dav@@ 4
contro 4
gni 4
vi. 4
loro. 4
oggi 4
niente 4
penso 4
anze 4
cerc@@ 4
tempo, 4
perchè 4
agli 4
conosci@@ 4
giust@@ 4
dente 4
tempo. 4
bilità 4
pressione 4
cosa. 4
abbia 4
fondament@@ 4
paes@@ 4
Mi 4
arci 4
molti 4
esso, 4
indietro 4
capire 4
l'un@@ 4
poter@@ 4
fa. 4
visione 4
primi 4
produ@@ 4
otten@@ 4
ammo 4
stati 4
Pens@@ 4
dato 4
estrem@@ 4
ragazz@@ 4
icamente 4
fica 4
caratter@@ 4
Perch@@ 4
persone. 4
isce 4
grazie 4
alto 4
tipi 4
fotogra@@ 4
Ogni 4
rappresent@@ 4
esperienza 4
creato 4
sull@@ 4
succede 4
tradi@@ 4
aggio 4
dire, 4
trov@@ 4
rende 4
fanno 4
remo 4
amento. 4
pi 4
potuto 4
chi. 4
reste 4
sti 4
risp@@ 4
=@@ 4
ppo 4
argo@@ 4
aia 4
ê@@ 4
# 4
Unit@@ 4
”@@ 4
อ@@ 4
^ 4
dell@@ 4
dimostr@@ 3
Stati 3
Uniti 3
imenti 3
Potete 3
cinque 3
più@@ 3
passato 3
così. 3
intorno 3
trasform@@ 3
profon@@ 3
Queste 3
cco 3
metà 3
porta 3
giorno. 3
dalle 3
imento 3
petroli@@ 3
ultimo 3
muov@@ 3
Forse 3
atori 3
ativa 3
sicure@@ 3
nazion@@ 3
eci 3
lavoro, 3
posti 3
lont@@ 3
c'@@ 3
zioni. 3
atura 3
mente, 3
difficil@@ 3
gioc@@ 3
problemi 3
essimo 3
informa@@ 3
Qui 3
ricev@@ 3
giov@@ 3
impi@@ 3
quattro 3
vogli@@ 3
fos@@ 3
vero 3
domande 3
sola 3
suoi 3
chiesto 3
soff@@ 3
situazione 3
zioni, 3
amici 3
emi 3
ioni 3
deva 3
corpo 3
Poi 3
sopra 3
forma 3
vero, 3
senso 3
spieg@@ 3
comport@@ 3
disse 3
terra 3
casa 3
avrebbe 3
c'erano 3
asse 3
ativo 3
faccia 3
riman@@ 3
migliore 3
sapete, 3
gior@@ 3
l'in@@ 3
strada 3
ò@@ 3
sembra 3
questo. 3
alta 3
tua 3
sapete 3
deve 3
vostro 3
insegn@@ 3
parlato 3
iniziato 3
vita, 3
picco@@ 3
semplic@@ 3
scoperto 3
migliaia 3
devono 3
viamo 3
meccan@@ 3
chiamato 3
cellule 3
Nel 3
capito 3
dirit@@ 3
tura 3
parla 3
ranno 3
pianeta 3
ogn@@ 3
ici, 3
futuro@@ 3
disponi@@ 3
erebbe 3
ambiente 3
enorme 3
raccol@@ 3
avrei 3
serie 3
prend@@ 3
quei 3
sce 3
grazi@@ 3
diventa 3
viaggi@@ 3
glie 3
importante 3
Ness@@ 3
almeno 3
Hanno 3
famigli@@ 3
tagli@@ 3
affron@@ 3
uomo 3
raccont@@ 3
vogliamo 3
anno, 3
servi@@ 3
telefon@@ 3
C'è 3
giorno, 3
anti. 3
mette 3
tante 3
difficile 3
avevo 3
amento, 3
cele@@ 3
É@@ 3
^@@ 3
svi@@ 3
£@@ 3
ā@@ 3
americ@@ 3
ë@@ 3
 3
ć@@ 3
Á@@ 3
_ 3
cic@@ 3
mostra 2
bene. 2
sapere 2
scienzi@@ 2
nello 2
mondi@@ 2
enti. 2
♪@@ 2
buon 2
vediamo 2
amenti 2
denar@@ 2
rendere 2
pubbl@@ 2
realtà, 2
cambiamento 2
facci@@ 2
giro 2
struttura 2
vedete 2
nuov@@ 2
energia 2
aiutare 2
risolvere 2
più. 2
futuro 2
funziona 2
miliar@@ 2
Tutto 2
chiama 2
impatto 2
dopo, 2
giun@@ 2
incontr@@ 2
arono 2
spost@@ 2
scienza 2
Vorrei 2
ragion@@ 2
sistem@@ 2
esplor@@ 2
loro, 2
movimento 2
soprat@@ 2
strumenti 2
sare@@ 2
arli 2
azioni. 2
gioco 2
genere 2
Ec@@ 2
storia. 2
altro. 2
oggi, 2
grafi@@ 2
volevo 2
esempio, 2
mente. 2
guardare 2
giovani 2
spesso 2
ultima 2
lungo 2
accett@@ 2
dagli 2
uomini 2
vi, 2
compren@@ 2
probabilmente 2
pubblico 2
bbe 2
lmente 2
vorrei 2
racco@@ 2
arrivare 2
immag@@ 2
avamo 2
parlando 2
desider@@ 2
alz@@ 2
sappiamo 2
musica 2
endere 2
nome 2
resto 2
riuscit@@ 2
l'ho 2
mesi 2
allora 2
Io 2
volta, 2
ficare 2
capacità 2
cono 2
preso 2
pensato 2
usato 2
emmo 2
ì@@ 2
passo 2
unque, 2
eranno 2
dirett@@ 2
facciamo 2
andato 2
saranno 2
adesso 2
farmac@@ 2
Beh, 2
cibo 2
trovato 2
potremmo 2
rebbe 2
Allora 2
luo@@ 2
dietro 2
sito 2
Credo 2
sacco 2
trova 2
modello 2
l'idea 2
Che 2
condivi@@ 2
scopri@@ 2
affrontare 2
madre 2
campo 2
posta 2
cultura 2
figli@@ 2
sette 2
alità 2
conosc@@ 2
né 2
potenzi@@ 2
anza, 2
famiglia 2
occhi 2
realt@@ 2
omia 2
fossero 2
governo 2
storie 2
cittad@@ 2
esem@@ 2
anti, 2
Vor@@ 2
sbagli@@ 2
icità 2
dete 2
centinaia 2
ente, 2
igli@@ 2
anist@@ 2
a". 2
* 2
…@@ 2
rese@@ 2
♫@@ 2
*@@ 2
ô@@ 2
²@@ 2
forni@@ 2
ร@@ 2
่@@ 2
ย@@ 2
́@@ 2
æ@@ 2
@@ 2
ī@@ 2
uta 1
dete, 1
popolazione 1
citt@@ 1
accad@@ 1
umento 1
attro 1
sosten@@ 1
parti 1
paesi 1
dollari 1
zia 1
lanci@@ 1
Perciò 1
spett@@ 1
c'era 1
risult@@ 1
scoprire 1
endono 1
divert@@ 1
matemat@@ 1
faccio 1
programma 1
bambini 1
istru@@ 1
lì 1
strumento 1
azioni, 1
suon@@ 1
linea 1
stra 1
cervello 1
aspetto 1
chiamata 1
ragione 1
attività 1
gruppo 1
guad@@ 1
colo. 1
essero 1
migliori 1
uom@@ 1
aiut@@ 1
centro 1
tornare 1
umani 1
attraver@@ 1
parola 1
piutto@@ 1
giorn@@ 1
testa 1
opport@@ 1
oggi. 1
parte@@ 1
avanti 1
ici. 1
cammin@@ 1
colo 1
biso@@ 1
pre 1
forza 1
vostra 1
pubbli@@ 1
centin@@ 1
piccoli 1
svilupp@@ 1
Alcun@@ 1
prodotto 1
assolutamente 1
costruito 1
regol@@ 1
periodo 1
rebbero 1
un'altra 1
sping@@ 1
cento 1
piace 1
soprav@@ 1
anno. 1
piamo 1
seconda 1
gere 1
luce 1
stessi 1
esatt@@ 1
dispon@@ 1
maggior 1
differenza 1
dà 1
natura 1
arlo 1
progetto 1
vicino 1
tenere 1
cercare 1
utilizz@@ 1
ì. 1
oggi@@ 1
assolut@@ 1
fatto, 1
Dobbiamo 1
abilità 1
compag@@ 1
zzo 1
Oggi 1
venire 1
este 1
ascolt@@ 1
avevano 1
incredibi@@ 1
potere 1
forma@@ 1
imparato 1
dicono 1
noi, 1
luogo 1
cresci@@ 1
itori 1
bbero 1
bracci@@ 1
coinvol@@ 1
vanno 1
malattie 1
svilu@@ 1
corso 1
padre 1
eremo 1
ci. 1
venne 1
controllo 1
risor@@ 1
istitu@@ 1
e". 1
esseri 1
zzi 1
gna 1
comunic@@ 1
importanti 1
pazi@@ 1
prodo@@ 1
nessun 1
vogliono 1
vede 1
nemmeno 1
studenti 1
Ì@@ 1
azien@@ 1
parteci@@ 1
$ 1
ità, 1
tanti 1
qualunque 1
fronte 1
opportunità 1
vano 1
Ero 1
Dopo 1
esperi@@ 1
enze 1
osi 1
diventare 1
bisogno 1
ć 1
ú@@ 1
scho@@ 1
bamb@@ 1
alber@@ 1
º@@ 1
˚ 1
√@@ 1
±@@ 1
qui, 1
Ç@@ 1
donna 1
donn@@ 1
setti@@ 1
ē@@ 1
送@@ 1
你@@ 1
葱 1
¢ 1
€@@ 1
Č@@ 1
ione 1
́ 1
¡@@ 1
Å@@ 1
ø 1
ě@@ 1
ï 1
ā 1
ū@@ 1
¿@@ 1
