the 184712
to 116145
of 107595
and 102555
a 97781
that 70701
in 69173
I 60298
is 55711
you 46394
we 42337
And 39157
it 33593
this 33557
was 27275
for 26446
are 25399
have 24567
on 24520
-- 23365
with 22351
they 19583
at 19158
can 18941
about 18802
what 18207
be 18189
as 17453
So 16583
not 15964
all 15850
an 14712
my 14646
from 14181
do 13739
one 13445
, 13438
our 13248
or 13245
but 13094
so 13035
like 12983
it's 12700
just 12279
people 12072
. 12043
But 11406
if 11246
these 11207
The 11171
very 10813
by 10626
going 10227
when 10001
out 9910
s 9890
had 9692
We 9670
because 9666
more 9461
how 9376
ing 9323
their 9300
your 9063
were 9050
which 8947
get 8932
would 8831
he 8694
there 8582
who 8473
up 8441
think 8327
really 8290
ed 8272
me 8185
see 8126
I'm 8015
y 7937
It's 7790
has 7734
This 7705
into 7408
some 7404
where 7403
them 7148
don't 6981
It 6925
es 6903
then 6846
that's 6788
will 6717
actually 6633
know 6594
e, 6472
could 6456
been 6261
make 6231
You 6210
want 6208
al 6138
us 6096
t 6058
other 5872
re@@ 5671
go 5646
than 5591
e. 5459
s, 5417
those 5352
e@@ 5324
f@@ 5221
ts 5214
things 5181
way 5140
something 5113
his 5030
They 5004
got 4970
first 4962
little 4916
s@@ 4891
In 4873
s. 4861
also 4860
it. 4859
ly 4845
no 4809
d, 4801
we're 4788
look 4701
two 4686
years 4640
only 4634
c@@ 4559
most 4546
time 4486
even 4435
over 4396
need 4389
now 4387
much 4298
d. 4239
take 4221
kind 4144
back 4137
many 4133
she 4110
new 4092
ent 4074
y, 4074
you're 4070
y. 4068
er 4039
thing 4036
here 4024
lot 4004
world 4002
for@@ 3956
♫ 3908
in@@ 3876
said, 3870
able 3868
"@@ 3795
there's 3793
come 3776
every 3686
es, 3666
st@@ 3664
through 3631
What 3592
around 3585
Now, 3530
right 3530
different 3518
did 3492
So, 3465
b@@ 3458
they're 3446
d@@ 3432
her 3416
being 3413
If 3395
p@@ 3392
its 3374
same 3373
se@@ 3370
it, 3367
de@@ 3357
work 3353
put 3352
g@@ 3341
any 3341
use 3317
know, 3292
n@@ 3291
good 3246
ex@@ 3242
es. 3188
ation 3182
w@@ 3181
called 3160
Now 3042
m 3010
t. 2985
I've 2946
i@@ 2902
doing 2896
He 2894
o@@ 2885
se 2872
r@@ 2861
ar@@ 2855
that, 2836
made 2834
you. 2832
ate 2827
find 2824
l@@ 2819
That's 2810
tell 2809
al@@ 2799
d 2770
down 2767
three 2753
t@@ 2751
e 2719
human 2697
a@@ 2692
didn't 2654
tion 2652
u@@ 2639
why 2638
co@@ 2602
an@@ 2590
is, 2572
y@@ 2568
TED 2534
talk 2534
might 2530
after 2525
percent 2516
started 2512
say 2505
di@@ 2502
should 2480
life 2480
last 2454
li@@ 2449
we've 2446
own 2429
went 2425
give 2424
m@@ 2418
ds 2413
en@@ 2413
Well, 2397
age 2391
ical 2383
Thank 2381
There 2378
me, 2367
ous 2356
can't 2355
never 2353
it@@ 2312
h@@ 2305
ers 2293
great 2278
st 2267
lo@@ 2265
change 2261
t, 2261
big 2251
? 2240
still 2226
used 2217
part 2216
ice 2201
When 2196
few 2155
A 2151
ve 2151
ever 2148
came 2147
start 2132
that. 2128
each 2118
How 2106
show 2104
found 2103
between 2103
another 2102
next 2097
ac@@ 2091
le 2090
A@@ 2073
this. 2059
say, 2055
ity 2051
be@@ 2046
de 2041
la@@ 2041
k 2040
idea 2017
That 2004
tre@@ 1992
day 1979
on@@ 1969
ma@@ 1966
Talk 1964
looking 1959
does 1957
bit 1952
better 1949
con@@ 1934
at@@ 1926
car@@ 1921
them. 1919
do@@ 1916
k@@ 1913
W@@ 1910
si@@ 1904
important 1903
Subtitles 1902
Transcript: 1902
ce 1881
ne@@ 1874
H@@ 1871
doesn't 1866
wanted 1864
sort 1839
Because 1813
world. 1810
this, 1808
try 1806
trying 1802
before 1799
using 1794
ks 1773
may 1773
said 1765
call 1765
thought 1763
off 1758
to@@ 1755
whole 1753
always 1751
ing. 1731
est 1720
time, 1719
mo@@ 1706
understand 1705
tr@@ 1690
as@@ 1689
ch 1667
million 1664
un@@ 1657
th@@ 1655
working 1649
long 1643
ra@@ 1643
what's 1640
fact, 1635
feel 1616
ding 1608
took 1607
er@@ 1605
real 1604
se. 1603
place 1601
live 1597
ch@@ 1593
end 1592
help 1589
bo@@ 1586
sion 1584
way, 1578
create 1575
en 1573
ro@@ 1569
become 1569
hi@@ 1568
x@@ 1563
believe 1561
man@@ 1561
you, 1560
love 1560
th 1554
There's 1551
fa@@ 1547
My 1545
less 1536
red 1534
thing. 1526
there. 1525
time. 1517
gh@@ 1514
brain 1513
ar 1512
getting 1511
maybe 1510
four 1510
mi@@ 1502
ho@@ 1502
ting 1502
wh@@ 1499
here, 1493
su@@ 1492
p 1490
him 1490
10 1481
course, 1480
M@@ 1478
quite 1474
ally 1471
ti@@ 1467
means 1466
I'd 1462
story 1460
These 1460
too 1459
data 1455
les 1454
them, 1453
ic@@ 1449
v@@ 1445
comes 1444
women 1442
fac@@ 1438
done 1436
me. 1434
ying 1431
without 1427
sed 1424
problem 1420
world, 1415
making 1411
h 1410
ag@@ 1409
here. 1406
ol@@ 1405
wa@@ 1403
social 1401
ated 1394
ke 1390
no@@ 1390
One 1382
probably 1376
fi@@ 1375
min@@ 1371
number 1367
makes 1364
ou@@ 1361
: 1361
build 1361
talking 1358
water 1352
five 1352
let 1352
small 1348
system 1348
ant 1347
plan@@ 1346
year 1343
point 1339
I'll 1338
par@@ 1337
now, 1336
technology 1333
ted 1332
ses 1329
told 1328
old 1327
best 1321
ask 1320
ence 1318
We're 1317
fin@@ 1312
wor@@ 1310
te 1309
years, 1308
pretty 1307
pa@@ 1306
fe@@ 1306
ing, 1300
mat@@ 1300
me@@ 1300
se, 1298
such 1293
S@@ 1287
on. 1284
power 1283
across 1280
el@@ 1279
ri@@ 1276
act 1264
he's 1261
together 1258
per 1250
For 1247
ge 1246
led 1245
you've 1242
there, 1242
le@@ 1240
c 1240
ver@@ 1239
sh@@ 1236
produc@@ 1236
like, 1236
sur@@ 1231
low 1228
coming 1225
sure 1224
As 1219
colle@@ 1218
some@@ 1218
,000 1216
am 1214
everything 1213
question 1213
light 1209
having 1208
people, 1203
times 1200
person 1197
I@@ 1196
move 1195
Why 1191
every@@ 1190
thinking 1189
body 1188
B@@ 1187
we@@ 1187
n 1186
form 1184
saw 1184
She 1182
well 1181
design 1178
er, 1176
w 1174
am@@ 1171
ms 1165
ago, 1162
ver 1158
one. 1155
ment 1152
off@@ 1152
g 1151
als 1150
pu@@ 1150
vi@@ 1149
kids 1148
second 1147
wi@@ 1145
il@@ 1144
global 1137
New 1137
inter@@ 1133
almost 1132
living 1131
seen 1130
on, 1127
ent@@ 1117
asked 1116
away 1113
D@@ 1113
young 1112
ter@@ 1110
po@@ 1110
learn 1107
children 1107
us. 1107
gen@@ 1105
let's 1104
20 1103
information 1101
building 1101
day, 1097
life. 1096
pl@@ 1096
left 1093
hard 1093
single 1093
thing, 1093
ine 1093
whether 1091
ble 1090
All 1088
half 1088
turn 1087
im@@ 1087
pro@@ 1086
te@@ 1083
looked 1080
res@@ 1078
ded 1076
both 1074
pla@@ 1071
keep 1069
They're 1066
lin@@ 1064
Th@@ 1063
enough 1063
care 1062
goes 1059
within 1057
looks 1056
today 1055
United 1049
id 1049
G@@ 1048
fact 1047
sense 1047
interesting 1046
qu@@ 1044
stan@@ 1041
ta@@ 1041
so, 1041
bring 1038
high 1036
ad 1036
people. 1035
connec@@ 1034
ved 1033
z@@ 1031
ins 1028
set 1028
bi@@ 1025
ition 1024
mean, 1022
while 1021
ki@@ 1016
money 1015
fun@@ 1015
us, 1014
energy 1014
man 1013
already 1012
play 1011
any@@ 1006
es@@ 1005
tive 1005
ther@@ 1001
happened 996
example, 992
do. 991
cre@@ 991
ely 990
billion 989
ph@@ 989
str@@ 987
ings 984
inside 983
reason 982
men 982
des@@ 978
et 976
someone 973
school 973
tions 970
often 969
go@@ 966
once 964
wasn't 963
far 961
way. 959
anything 959
work@@ 958
sen@@ 957
until 957
bad 956
years. 953
ore 950
sk@@ 946
all, 945
F@@ 945
effec@@ 944
couple 942
simple 942
50 941
read 940
under 939
re, 939
sing 938
public 938
heard 931
od 929
again, 928
or@@ 928
pe@@ 925
ess 925
food 924
ru@@ 921
science 920
up, 919
ab@@ 918
became 916
things. 915
ations 914
ary 913
da@@ 911
war@@ 909
ally, 909
ful 908
il 908
ation, 908
country 907
ation. 906
gener@@ 903
taking 902
six 900
's 899
top 899
well, 898
sm@@ 898
art 896
per@@ 895
one, 895
isn't 893
cho@@ 891
solu@@ 890
et@@ 889
up. 888
tly 886
basically 886
— 886
shar@@ 885
"I 885
happens 885
ways 884
mean 884
much. 883
dollars 882
though 881
countries 880
space 877
order 876
ments 874
possible 874
gets 873
decided 873
pre@@ 872
home 871
completely 871
b 868
open 867
knew 866
against 866
Let's 865
health 865
nothing 864
must 863
sa@@ 862
commun@@ 861
future 861
built 860
bu@@ 859
br@@ 859
sp@@ 859
learned 859
exactly 858
out, 856
think, 854
ing@@ 853
work. 852
pol@@ 851
experienc@@ 850
kinds 848
objec@@ 847
king 845
turns 844
piece 841
now. 839
ked 838
part@@ 837
1@@ 837
computer 836
share 835
... 835
C@@ 834
imagine 832
ones 832
st, 832
ack 830
since 829
right? 829
family 827
remember 826
ess@@ 826
k, 825
happen@@ 824
book 822
hear 821
ep@@ 821
hope 820
see, 820
ci@@ 819
side 817
oun@@ 815
teach@@ 815
'll 813
experience 813
wing 812
couldn't 811
op@@ 810
P@@ 807
wee@@ 806
rather 804
answer 802
re. 801
projec@@ 800
entire 800
turned 798
under@@ 798
ap@@ 795
trans@@ 794
room 793
life, 792
th. 791
imag@@ 790
der 790
Wh@@ 789
k. 789
ca@@ 789
out. 789
you'll 786
pres@@ 786
picture 784
amazing 784
tri@@ 783
here's 783
thousands 781
30 781
ther 780
gave 778
huge 778
sho@@ 777
tic 777
matter 774
run 774
x 773
lives 769
created 769
mark@@ 768
group 767
figure 767
story. 767
m, 766
stuff 766
study 765
ite 764
shows 764
lea@@ 764
somebody 763
face 763
ly, 763
front 762
ran@@ 761
business 761
moment 761
course 760
us@@ 760
control 759
her@@ 759
then, 758
N@@ 755
lots 755
job@@ 754
men@@ 753
stop 752
city 750
ating 750
takes 748
deci@@ 747
early 747
sometimes 747
ct 744
beautiful 743
says, 741
At 741
ter 741
ell 739
roo@@ 739
today, 739
son@@ 738
100 738
tru@@ 737
design@@ 737
ative 735
head 735
lar 735
ad@@ 734
ess. 734
a, 734
a. 731
ps 731
case 730
process 728
th, 728
do, 727
taken 724
g, 723
eng@@ 723
dri@@ 722
O@@ 722
speci@@ 722
happen 721
work, 721
problems 720
We've 720
le, 720
cor@@ 719
guy 719
American 718
un 717
ning 715
ideas 714
gra@@ 714
large 714
works 713
year, 713
ser@@ 712
centur@@ 712
ill@@ 711
foo@@ 710
days 709
ger 709
clas@@ 709
ey@@ 709
cu@@ 708
natural 708
ons 707
environment@@ 707
the@@ 705
well. 703
least 703
vo@@ 702
everybody 702
government 702
o, 702
video 702
research 702
particular 702
har@@ 699
♪ 699
worked 697
sc@@ 696
ligh@@ 696
car 695
re 694
project 693
jo@@ 693
human@@ 692
during 692
months 692
stories 691
in. 690
T@@ 690
else 690
leave 690
given 689
res 689
Then 688
example 688
mean@@ 687
don@@ 684
sol@@ 683
help@@ 683
word 682
along 682
name 680
today. 679
says 679
mind 678
ans 676
ity. 675
instead 675
sci@@ 673
is. 672
community 672
Do 672
behind 670
pas@@ 669
plac@@ 669
students 668
cannot 668
he@@ 668
began 666
ir 664
Here's 664
economic 662
le. 662
ast 661
gu@@ 660
places 660
gam@@ 659
we'll 656
Some 655
2@@ 654
certain 654
things, 653
ept 652
." 652
bro@@ 651
known 651
seeing 651
succ@@ 651
ability 648
third 647
local 646
moving 646
E@@ 646
saying 646
m. 646
heart 645
simply 644
all@@ 643
"The 643
Is 641
age, 639
ces 639
all. 639
thre@@ 639
ei@@ 638
ali@@ 637
day. 636
everyone 636
spent 635
model 635
full 634
close 634
ched 632
ry 632
Well 632
ago 631
is@@ 631
ha@@ 631
ol 630
cells 630
in, 630
my@@ 629
it? 629
You're 629
children@@ 628
women@@ 627
great@@ 627
Or 627
needed 626
happening 626
powerful 625
amount 624
realized 624
tried 623
disea@@ 623
felt 622
stre@@ 622
ur@@ 621
line 621
child 621
was, 620
political 619
very, 619
land 619
'd 617
myself 616
tw@@ 615
woman 615
thought, 615
bab@@ 613
later, 612
spend 611
To 611
sound 611
People 609
educ@@ 609
species 607
job 607
perhaps 606
again 604
univer@@ 604
needs 603
cap@@ 603
other. 602
terms 601
state 601
stud@@ 601
med 601
person@@ 600
clo@@ 600
el 600
right, 600
famili@@ 598
build@@ 597
music 597
ics 596
learning 596
Our 595
are, 593
history 593
black 593
flo@@ 593
ck 592
seven 592
stic 591
fe 590
vice 590
yet 590
ge@@ 589
innov@@ 589
different@@ 588
ni@@ 587
our@@ 587
Just 587
ess, 585
dan@@ 585
app@@ 584
tor 584
secon@@ 584
J@@ 583
interested 583
liv@@ 582
outside 581
biolog@@ 581
mother 579
guys 578
sitting 578
true 577
open@@ 577
resour@@ 577
again. 577
Here 576
hours 576
Internet 576
ction 575
self. 575
middle 574
actually, 574
brought 573
rest 572
key 572
15 571
year. 571
self, 569
U.S. 569
buy 569
past 569
Africa 567
mone@@ 566
changed 566
pay 565
depen@@ 565
leader@@ 565
comp@@ 565
You@@ 564
ich 564
CA: 564
govern@@ 564
difficult 563
and, 563
parts 563
-@@ 563
based 562
On 561
common 561
respon@@ 561
wonderful 560
mag@@ 560
story, 559
importan@@ 559
ic 559
walk 559
ici@@ 558
What's 558
animals 558
wouldn't 558
grow 557
climate 556
proc@@ 556
ll 556
gives 556
ten@@ 555
friends 555
wrong 554
gh, 554
right. 553
lost 553
rec@@ 553
level@@ 552
ence. 552
team 551
tion@@ 551
lic@@ 551
situ@@ 550
af@@ 548
ke@@ 548
arti@@ 548
visi@@ 547
wn 547
mor@@ 547
Can 546
deca@@ 546
language 546
longer 545
air 545
cancer 545
ain@@ 544
aroun@@ 544
star@@ 544
Ear@@ 544
bor@@ 544
air@@ 543
ace 543
resul@@ 543
planet 543
words 542
they've 541
ward 541
viol@@ 541
world's 541
robo@@ 541
wher@@ 540
high@@ 540
ste@@ 540
problem. 539
hundreds 539
've 538
starting 538
know. 538
seems 536
ds, 536
countri@@ 535
Not 534
questions 534
they@@ 534
personal 533
et, 533
poin@@ 533
patter@@ 533
real@@ 532
ain 531
model@@ 531
examp@@ 531
ourselves 531
dro@@ 531
rel@@ 530
access 530
ds. 530
organiz@@ 529
cell 529
ster 529
ner 527
house 527
evolu@@ 527
citi@@ 527
gn 526
giving 526
realize 526
mon@@ 525
deal 524
won't 524
Earth 524
with@@ 523
ve@@ 523
studi@@ 523
He's 523
telling 521
inspi@@ 521
company 521
ities 520
"Well, 520
exper@@ 520
eight 519
structure 519
over@@ 518
control@@ 518
physical 518
really, 518
write 518
them@@ 517
news 516
together, 516
view 516
No 516
itt@@ 515
et. 515
understanding 515
month@@ 514
cur@@ 514
ago. 514
10@@ 513
easy 513
ga@@ 513
growing 512
difference 512
de. 511
millions 511
universe 510
ju@@ 509
paper 509
size 509
exist@@ 509
more. 509
together. 508
companies 508
minut@@ 508
complex 508
system. 507
game 507
creating 505
present 505
met 505
question@@ 505
father 505
hand 505
ates 504
beginning 504
nature 504
level 503
what@@ 503
ght 503
likely 502
who's 502
developed 502
talked 501
valu@@ 501
inform@@ 501
hou@@ 501
e? 500
iti@@ 500
incredible 499
whatever 499
doc@@ 499
cost 498
happy 498
allow 497
pri@@ 497
ving 496
that? 495
absolutely 494
care@@ 494
education 494
or, 493
other@@ 493
population 493
pr@@ 493
ity, 493
ys. 492
area 491
feeling 491
lan@@ 490
g. 490
industr@@ 490
Let 490
showed 488
Okay, 488
poor 487
5 487
action 487
running 486
developing 486
machin@@ 486
quality 485
ence, 485
rai@@ 485
vari@@ 485
you@@ 484
ve, 484
40 483
hold 483
challeng@@ 482
she's 482
medical 482
wer 481
step 481
minutes 481
war 481
York 481
ati@@ 480
sit@@ 480
seem 480
save 479
ering 479
wrote 479
research@@ 479
ad, 479
oil 478
Y@@ 478
changes 478
ets 477
phone 477
pain@@ 477
media 477
surpri@@ 475
cell@@ 475
main 475
image 475
tural 474
systems 474
themselves 474
rou@@ 474
dom 474
ev@@ 473
national 473
R@@ 472
vit@@ 472
tion. 472
animal 472
tou@@ 471
are. 470
opportunity 469
incredibly 469
ans@@ 469
Stat@@ 469
tells 469
av@@ 468
descri@@ 468
down, 468
trav@@ 467
watch 467
night 467
dra@@ 467
ave 466
w, 465
thank 465
curr@@ 465
will@@ 465
type 465
solve 464
brea@@ 464
comple@@ 464
fil@@ 464
ath 464
other, 463
rit@@ 463
"You 463
major 463
moved 462
sts 462
By 462
green 461
ined 461
designed 461
computer@@ 460
ws 460
ger@@ 460
down. 459
test 458
gone 458
tend 458
anyone 458
South 458
especially 457
literally 457
program@@ 457
putting 456
free 455
States 454
prof@@ 454
train@@ 453
drug@@ 453
society 453
average 452
spe@@ 451
later 451
langu@@ 451
individual 451
begin 451
disco@@ 450
several 450
alls 450
In@@ 450
ground 449
either 449
support 449
ft 449
wron@@ 448
parents 448
system, 447
busin@@ 447
speak 447
wo@@ 446
And, 446
white 445
f 444
ment, 444
cted 444
about. 444
towards 444
fro@@ 444
beyond 443
market 442
fully 442
basic 442
ts. 441
ight 441
blue 441
World 441
frien@@ 441
ris@@ 440
form@@ 440
ought 440
about, 440
haven't 440
modern 439
cut 439
problem@@ 439
ve. 438
l 438
mer@@ 438
chan@@ 438
sy@@ 438
others 438
Li@@ 437
"What 437
regi@@ 437
ves 437
lon@@ 436
becomes 436
emo@@ 436
tors 436
scientists 435
wer@@ 434
pus@@ 434
send 434
blood 434
ght, 433
Every 433
produce 433
dollar@@ 433
recent@@ 433
Euro@@ 433
hel@@ 433
engine@@ 432
aren't 432
fl@@ 432
activit@@ 432
far@@ 431
focus 431
challenge 431
cities 430
After 430
yed 430
discovered 430
sha@@ 430
talk, 429
20@@ 429
growth 429
eat 429
playing 429
friend 428
follo@@ 428
hospit@@ 428
Fir@@ 427
ies 427
Go@@ 427
movi@@ 426
thou@@ 426
ear@@ 425
humans 425
miles 424
ices 424
itself 423
molecu@@ 423
fish 422
deep 421
self 421
saying, 420
ul@@ 420
finally 420
areas 419
value 419
biggest 418
teach 418
weeks 418
of, 418
explain 418
largest 418
tal@@ 418
cau@@ 418
stand 417
r 416
architec@@ 416
so@@ 416
digital 416
change. 415
death 415
think@@ 415
yourself 415
ind 415
enou@@ 415
machine 414
spac@@ 414
direc@@ 413
pictu@@ 413
stay 412
chance 412
asking 412
religi@@ 412
scientific 412
tiny 412
him, 412
school@@ 412
add@@ 411
this? 411
ment. 411
age. 411
enti@@ 411
differ@@ 410
back, 410
lease 410
With 409
o 408
An@@ 408
r. 408
short 407
st. 407
Maybe 407
Every@@ 407
onto 407
der@@ 406
are@@ 406
water. 406
showing 406
risk 405
ture 404
Of 404
hour@@ 404
hands 404
solar 403
convers@@ 403
eyes 403
ced 402
technology, 402
particularly 402
DNA 402
relationship 401
among 401
cit@@ 401
energ@@ 400
prove 400
stood 400
experi@@ 400
lived 399
famil@@ 399
special 399
ose 399
disease 399
knows 399
extremely 398
nice 398
selves. 398
duc@@ 398
sav@@ 398
cont@@ 398
people's 398
totally 397
school, 397
similar 397
individu@@ 396
India 396
China 396
to, 396
starts 396
duce 395
conv@@ 395
meet 395
quickly 394
including 394
cle 394
pick 394
America 394
changing 394
water, 394
case, 394
lu@@ 393
nam@@ 393
back. 393
born 393
vide@@ 392
hundred 392
be, 391
future. 391
certainly 391
go. 391
culture 391
wal@@ 391
images 391
Indi@@ 390
interest@@ 390
reach 390
develop 389
place. 389
him. 389
lives. 389
hol@@ 389
issu@@ 388
comb@@ 388
through@@ 388
Mar@@ 388
societ@@ 388
arri@@ 388
fly 387
dea@@ 387
worth 387
God 387
tools 386
gi@@ 386
ful@@ 386
numb@@ 386
map 385
wants 385
organi@@ 385
tes@@ 385
impact 384
before. 384
brain. 384
obvious@@ 383
Where 383
vill@@ 383
hear@@ 383
dark 383
democrac@@ 381
povert@@ 381
field 381
ideas@@ 381
thro@@ 381
sign@@ 381
ared 381
you'd 381
gg@@ 381
fre@@ 381
argu@@ 380
too. 380
han@@ 380
pes 380
moment@@ 380
ocean 379
defin@@ 378
see@@ 378
mus@@ 378
drug 377
knowledge 377
late 377
force 377
ice, 376
ature 376
country, 376
righ@@ 376
believ@@ 376
surface 376
named 376
gn@@ 376
cultu@@ 376
Chinese 376
hit 375
y? 375
technologies 374
good. 374
reason@@ 374
ould 374
eventu@@ 373
Even 373
bigger 373
source 372
bottom 372
boo@@ 372
man, 372
inv@@ 372
evidence 372
text 371
pos@@ 371
allowed 371
sudd@@ 371
normal 371
North 371
away. 370
onal 370
lead 369
program 369
mental 369
reading 369
memb@@ 369
ents 368
taught 368
fic 368
cancer@@ 368
patients 368
affec@@ 367
stat@@ 367
ce, 367
er. 367
econom@@ 366
sent 366
Don't 366
ell@@ 366
sions 366
easi@@ 365
priv@@ 365
wan@@ 365
sit 365
rely 365
material 364
allows 364
measure 364
stru@@ 364
happene@@ 364
Yes, 363
involved 363
Most 363
supposed 363
soon 363
we'd 363
om 363
physic@@ 363
nobody 363
ink 363
music@@ 363
cam@@ 362
numbers 362
drive 362
add 361
aw@@ 361
percent. 361
feet 361
watching 361
son 361
sounds 360
en, 360
OK, 360
grew 360
happin@@ 360
qui@@ 359
pe 359
0@@ 359
guess 359
rate 359
fear 359
recor@@ 358
ye@@ 358
clear 358
Yeah, 358
finding 358
seri@@ 358
memor@@ 358
figu@@ 357
expe@@ 357
shown 357
wish 357
behavior@@ 357
favorite 356
higher 356
tu@@ 356
shi@@ 356
ically 355
12 355
t? 355
break 355
bunch 354
conditi@@ 354
We@@ 354
rea@@ 354
feel@@ 354
truly 353
enc@@ 353
writing 353
ai@@ 353
communic@@ 353
stop@@ 353
revolu@@ 353
dee@@ 353
dge 352
ning, 352
compas@@ 352
available 351
responsi@@ 351
sle@@ 351
Some@@ 350
consu@@ 350
sub@@ 350
ulti@@ 350
walking 350
Those 349
cause, 349
web@@ 349
goo@@ 349
group@@ 349
bri@@ 349
attention 349
pi@@ 348
anybody 348
center 348
have, 348
ys 348
hand, 347
jec@@ 347
pract@@ 347
Tw@@ 346
environment 346
fir@@ 346
girls 346
sity 346
scre@@ 346
online 346
legal 345
insi@@ 345
traditional 344
oper@@ 344
coun@@ 344
Righ@@ 344
protect 344
spo@@ 344
perspec@@ 343
sorts 343
tech@@ 343
ick 343
power@@ 343
natu@@ 343
supp@@ 343
net@@ 343
words, 342
No, 342
standing 341
result 341
kept 341
more, 341
?" 341
brain, 341
health@@ 341
continue 340
ste 340
cause 340
ken 340
creative 340
chang@@ 340
hand@@ 340
robot 340
stori@@ 340
institu@@ 340
possible. 339
international 338
ill 338
lab@@ 338
girl 338
theory 338
data, 338
excit@@ 337
perfect 337
visual 337
message 337
oka@@ 337
ba@@ 337
gic 336
potential 336
benef@@ 336
yet, 336
structu@@ 336
cul@@ 335
9@@ 335
ss 335
site 335
ended 335
soci@@ 335
em@@ 334
photogra@@ 334
meant 333
planet. 333
bac@@ 333
law 333
country. 333
mother@@ 333
moral 333
fundamental 333
ice. 332
tain 332
pictures 332
shed 332
de, 332
this: 331
issue 331
cle@@ 331
reality 331
technology. 331
nine 331
leav@@ 331
better. 330
To@@ 330
lose 330
spread 330
carbon 329
stuff. 329
25 329
happen. 329
extraordinary 329
Africa, 329
behavior 329
cent@@ 329
missi@@ 328
scienti@@ 328
thousand 328
chem@@ 328
bir@@ 328
sea 328
mass 327
product 327
be. 327
ran 327
predic@@ 327
material@@ 327
vely 327
hea@@ 327
Lo@@ 327
w. 326
thin@@ 326
wn@@ 326
development 326
movement 326
capit@@ 325
press 325
sta@@ 325
to. 325
en. 325
English 325
bra@@ 325
did. 324
fu@@ 324
60 324
economy 324
Gre@@ 324
no, 324
film 324
ort@@ 323
des 323
att@@ 323
spea@@ 323
vic@@ 322
cial 322
bed 322
ish 322
electric@@ 321
animal@@ 321
generation 321
becoming 321
choose 321
lef@@ 321
body. 321
charac@@ 321
mp@@ 320
expla@@ 320
que 320
new@@ 320
ream 320
appe@@ 320
craz@@ 320
dden 319
piec@@ 319
audience 319
patient@@ 319
provide 318
was@@ 318
ld 318
Chin@@ 318
like. 318
question. 318
color 318
role 317
tur@@ 317
scale 317
idea. 317
tting 316
kill 316
ried 316
hop@@ 316
actual 316
essentially 316
problem, 316
ester@@ 316
groups 316
Oka@@ 316
nuclear 316
fore 315
200 315
side, 315
earli@@ 315
increase 315
percent@@ 315
On@@ 314
books 314
home. 313
vices 313
thern 313
space. 313
Are 313
upon 313
follow 313
inves@@ 312
degre@@ 312
Google 312
sex 312
approach 312
Chris 311
exciting 311
school. 311
nee@@ 311
L@@ 311
data. 311
fight 311
listen 310
clear@@ 310
series 309
ment@@ 309
notice 309
listen@@ 309
80 309
sugges@@ 309
usually 309
complic@@ 309
uses 308
elec@@ 308
fall 308
ences 308
software 307
bas@@ 307
ok 307
meters 307
S 307
recognize 307
compan@@ 307
point, 307
strong 307
gr@@ 307
typic@@ 307
journey 307
African 307
ree 306
tional 306
greatest 306
can@@ 305
wever, 305
weren't 305
not@@ 305
body, 305
above 305
shape 305
selves, 304
do? 304
h, 304
But, 304
simp@@ 304
achi@@ 304
cri@@ 303
expect 303
mous 303
fiel@@ 303
is: 303
not. 303
ty 303
emer@@ 303
prin@@ 302
days, 302
issues 302
ely, 302
financial 302
off. 302
ctu@@ 302
times, 302
book, 302
V@@ 302
paper@@ 301
reasons 301
system@@ 301
3@@ 301
die 301
ale 301
Another 301
Is@@ 301
network 301
important. 300
consider 300
acc@@ 300
question, 300
moment, 300
Africa. 300
ze 299
focu@@ 298
suff@@ 298
lar@@ 297
Americ@@ 297
move@@ 297
sor@@ 297
conc@@ 296
of@@ 296
ys, 296
au@@ 296
origin@@ 296
evol@@ 296
blo@@ 296
leg@@ 296
wr@@ 295
chil@@ 295
girl@@ 295
use@@ 294
milit@@ 294
tt@@ 294
mu@@ 294
Ch@@ 294
ready 293
ho 293
stem 293
crit@@ 290
fortunat@@ 289
struc@@ 288
fam@@ 288
bel@@ 287
lear@@ 286
dire@@ 286
go, 285
David 284
aut@@ 284
fine 283
2 282
alth 282
befor@@ 282
No@@ 282
por@@ 281
eting 280
virtu@@ 280
camera 280
positi@@ 280
200@@ 279
ple 279
ori@@ 279
Be@@ 278
massi@@ 277
intro@@ 276
sequ@@ 276
"Oh, 276
emp@@ 276
bile 276
protec@@ 276
signific@@ 275
icro@@ 274
Secon@@ 273
your@@ 273
incre@@ 273
ut@@ 272
ame 272
ner@@ 272
popul@@ 272
heal@@ 272
ard 271
polit@@ 271
col@@ 271
publi@@ 270
electr@@ 270
cou@@ 269
’@@ 269
id@@ 268
futu@@ 268
mis@@ 268
pati@@ 268
peri@@ 267
Af@@ 266
ani@@ 266
ram@@ 266
stu@@ 266
fur@@ 266
idea, 266
student@@ 264
pensi@@ 264
ascin@@ 264
K@@ 264
rd 264
lat@@ 262
com@@ 262
present@@ 261
pho@@ 261
ship 261
tor@@ 259
adul@@ 258
possibil@@ 257
ters 257
18 257
materi@@ 256
possi@@ 256
bly 256
OK. 254
opportun@@ 254
Europ@@ 254
grou@@ 254
strate@@ 254
wonder@@ 253
du@@ 253
John 252
happ@@ 252
intelligen@@ 252
ust 252
Ste@@ 252
ty@@ 252
National 252
hav@@ 252
posed 251
medi@@ 251
loo@@ 250
mar@@ 250
quick@@ 249
beauti@@ 249
gro@@ 248
They@@ 248
Californi@@ 247
dre@@ 247
o. 245
sel@@ 244
lett@@ 243
pp@@ 243
n't 242
las@@ 242
pic@@ 242
lim@@ 242
ec@@ 241
equi@@ 241
essi@@ 240
India, 240
Oh 240
tel@@ 239
win 239
ocean@@ 239
uni@@ 239
provi@@ 239
Oh, 238
vered 238
identi@@ 238
out@@ 237
enor@@ 237
invent@@ 237
7@@ 237
cli@@ 237
90 237
500 235
bott@@ 235
record 235
conf@@ 235
cer@@ 234
ong@@ 234
zed 234
imp@@ 233
tra 233
terri@@ 233
continu@@ 232
America, 232
gas 232
University 232
effici@@ 230
ob@@ 230
bl@@ 230
influ@@ 229
centr@@ 229
rat@@ 229
stran@@ 228
indo@@ 228
amaz@@ 228
tot@@ 227
e: 226
San 226
ef@@ 224
ide@@ 224
kno@@ 224
perfe@@ 223
ow 223
beg@@ 223
fem@@ 223
atu@@ 223
ns 223
eve 223
ia 222
inclu@@ 221
Face@@ 220
dol@@ 219
ren@@ 218
ident@@ 218
sum@@ 217
U.@@ 217
ep 217
bett@@ 216
standard 216
immediat@@ 215
partic@@ 214
increa@@ 214
Bo@@ 213
popu@@ 213
Mi@@ 213
ddle 213
larg@@ 213
70 212
much@@ 211
ron@@ 211
ert 210
sue 210
him@@ 210
aspe@@ 209
spen@@ 209
lli@@ 209
America. 208
attenti@@ 208
mes 208
Yor@@ 208
creati@@ 208
male 207
distribu@@ 207
mber 206
sil@@ 206
radic@@ 206
stuff@@ 205
gh 205
mate 205
mas 204
TV 202
ouldn't 201
ous@@ 201
world@@ 201
oc@@ 200
mea@@ 199
fanta@@ 198
stra@@ 198
color@@ 197
prote@@ 197
3D 197
necessari@@ 196
ank 196
obvi@@ 195
llions 194
grow@@ 194
audi@@ 194
won@@ 194
member 194
sh 193
organis@@ 193
quic@@ 192
capac@@ 192
due 192
web 192
300 191
spi@@ 191
progres@@ 191
ven 191
industri@@ 191
run@@ 190
ed@@ 190
11 189
ential 189
V 189
pag@@ 189
Internet, 189
5@@ 188
youn@@ 188
dimen@@ 188
din@@ 187
cop@@ 187
Se@@ 187
outh 187
compani@@ 186
DNA@@ 186
messa@@ 186
medic@@ 186
eas@@ 185
4@@ 185
og@@ 185
cat@@ 184
begin@@ 184
tim@@ 184
allo@@ 183
Yea@@ 183
rapi@@ 182
ach 182
ational 181
discu@@ 181
Big 181
Bill 180
onlin@@ 180
maj@@ 179
zero 178
amp@@ 178
medicin@@ 178
wed 177
compon@@ 177
inste@@ 177
cure 177
temper@@ 176
lun@@ 176
"No, 176
theor@@ 176
soun@@ 175
evi@@ 174
ea@@ 174
wat@@ 174
dio 173
qual 173
loc@@ 173
Washingt@@ 173
viv@@ 173
Paul 172
consider@@ 172
16 171
U@@ 171
thing@@ 171
Internet. 170
14 170
cos@@ 170
temp@@ 170
so. 169
Un@@ 169
tool@@ 168
gal@@ 168
technologi@@ 167
vacc@@ 167
roc@@ 167
tran@@ 166
No. 166
know@@ 165
develop@@ 165
commer@@ 165
George 165
e's 164
cir@@ 164
spec@@ 164
knowle@@ 163
Richard 163
virus 163
hu@@ 161
civi@@ 161
inf@@ 160
tro@@ 160
org@@ 160
Engli@@ 160
ut 159
fici@@ 159
Ri@@ 159
collabor@@ 159
mal@@ 159
journe@@ 159
tra@@ 159
rur@@ 158
accor@@ 158
James 158
ric@@ 157
plor@@ 157
comm@@ 157
400 156
ned 156
dn't 156
computer. 156
relation@@ 156
applic@@ 156
diver@@ 155
this@@ 155
6@@ 155
norm@@ 154
.@@ 154
kes 154
no. 153
ute 153
9 153
necess@@ 152
ordinary 152
port@@ 152
Do@@ 151
ale. 150
24 150
computer, 149
00 149
confer@@ 149
ire 149
perc@@ 149
economi@@ 148
ff@@ 148
val@@ 148
inc@@ 147
Michael 147
char@@ 147
vive 146
die@@ 146
geno@@ 146
den@@ 146
ele@@ 146
appro@@ 145
ach@@ 145
OK@@ 145
gran@@ 145
base 145
llion 144
So@@ 143
Los 143
aff@@ 142
that@@ 141
colleg@@ 141
Ma@@ 140
3 140
child@@ 140
sugg@@ 140
and@@ 139
ile 139
vant@@ 138
fol@@ 137
ong 137
17 137
fel@@ 137
fossi@@ 136
beli@@ 136
Lond@@ 136
ari@@ 136
cal@@ 134
Si@@ 134
ate@@ 133
fort@@ 132
Al 131
desi@@ 131
13 131
En@@ 131
princip@@ 131
cour@@ 130
sand 129
perio@@ 128
tec@@ 128
dise@@ 128
liter@@ 128
ale, 128
eno@@ 127
intellig@@ 126
ese 126
serve 125
amoun@@ 125
democ@@ 125
sic@@ 125
pan@@ 125
ross 125
crimin@@ 124
sop@@ 123
intel@@ 123
pot@@ 123
entially 123
rare 122
Per@@ 122
haps 122
gy 122
era 122
reco@@ 121
possib@@ 121
ene 120
q 120
ver, 119
termine 119
TED, 118
technolog@@ 117
TED. 117
fundament@@ 116
leader 115
sual 115
proces@@ 115
oce@@ 115
unch 114
P 114
Come 113
gre@@ 113
ciate 112
sai@@ 112
tar@@ 111
up@@ 111
lob@@ 111
ith 110
la 109
cond@@ 108
az@@ 107
gned 106
behavi@@ 105
designer 104
SA 104
St@@ 104
u 104
princi@@ 104
particular@@ 101
entr@@ 101
sic 101
sour@@ 100
lik@@ 100
T 99
ssi@@ 99
stitu@@ 99
batter@@ 99
faci@@ 99
contin@@ 98
invol@@ 98
inly 97
ching 97
vel 97
mort@@ 97
natur@@ 96
quar@@ 96
bb@@ 96
litt@@ 95
prime 95
bel 95
'@@ 94
Fi@@ 94
ses@@ 94
comput@@ 94
nd 94
dic@@ 94
vere 93
vite 93
na 92
ell, 92
sing@@ 92
orth 91
trad@@ 91
raz@@ 91
actu@@ 91
propri@@ 91
cel@@ 90
mes@@ 90
neur@@ 90
bus@@ 89
ort 89
interes@@ 89
ine@@ 89
politic@@ 88
bre@@ 88
B 88
stor@@ 88
pren@@ 87
bod@@ 87
contribu@@ 87
pure 87
sent@@ 87
nor@@ 86
diverse 86
dy 86
pass@@ 86
auti@@ 86
sup@@ 86
U.S@@ 86
dec@@ 85
arch@@ 84
occu@@ 84
date 84
Lon@@ 84
pt 84
Al@@ 83
diffic@@ 82
ten 82
recogni@@ 82
aver@@ 82
mori@@ 82
tau@@ 81
incredi@@ 81
Inter@@ 81
ll@@ 81
orts 81
ico 81
Afric@@ 81
environ@@ 80
ether 80
Goog@@ 80
1 80
prog@@ 79
ener@@ 79
io 78
orse 78
probabil@@ 78
itional 78
attr@@ 77
dir@@ 77
throu@@ 77
gui@@ 77
infor@@ 76
hun@@ 76
Tu@@ 76
; 75
tit@@ 75
conclu@@ 75
worl@@ 75
termin@@ 75
't 74
libr@@ 74
piano 74
esti@@ 74
fer@@ 74
zz@@ 73
down@@ 73
con 72
acci@@ 72
dent@@ 72
softw@@ 71
avail@@ 71
tore 71
ce. 71
writ@@ 71
dig@@ 71
aria 70
ros@@ 70
razi@@ 70
laborat@@ 70
finan@@ 69
studio 69
conver@@ 69
jour@@ 69
7 69
Gi@@ 69
8@@ 69
pare 69
blu@@ 68
people@@ 68
avi@@ 68
fic@@ 68
ation@@ 68
sto@@ 68
ben@@ 68
ini@@ 67
rac@@ 67
eri@@ 67
Uni@@ 66
via 66
sia 66
who@@ 66
dar@@ 66
den 66
tta 66
ono@@ 66
mb@@ 66
os@@ 66
tin@@ 65
til 65
fantast@@ 65
lif@@ 65
itting 65
dd@@ 65
beh@@ 65
immedi@@ 64
ques@@ 64
indi@@ 64
reali@@ 64
tele@@ 64
Pri@@ 64
ban@@ 64
buil@@ 63
pon@@ 63
volu@@ 63
tivit@@ 63
nu@@ 62
ist@@ 62
well@@ 62
orig@@ 62
anim@@ 62
consi@@ 61
mapp@@ 61
year@@ 61
fortun@@ 61
sical 61
X 60
contr@@ 60
Jo@@ 60
di 60
liber@@ 60
pen@@ 60
glob@@ 59
dat@@ 59
edi@@ 59
ta 59
seem@@ 59
mil@@ 59
